{
  "ĠdeleteList": 3571,
  "ĠvalidateNode": 3156,
  "site": 1180,
  "ĠrÃ©siduelles": 1378,
  "ew": 2220,
  "ension": 406,
  "Ġ8109": 4323,
  "12": 2539,
  "Ġmercre": 2426,
  "Ġdat": 307,
  "ciel": 1997,
  "Ġquantification": 1797,
  "her": 1636,
  "Ġ/": 1037,
  "Ġrouter": 540,
  "Ġ71": 2802,
  "Ġauxiliaire": 1426,
  "vail": 1440,
  "Ġ80": 2800,
  "Ġcom": 227,
  "ve": 200,
  "918": 3215,
  "ĠcanList": 3857,
  "Ġdiff": 894,
  "ĠconvertSet": 3567,
  "48": 1047,
  "Ġvocale": 2100,
  "Ġ&": 2403,
  "ĠcomputeNode": 3082,
  "589": 3869,
  "<pad>": 0,
  "Ġcolon": 2322,
  "Ġgrad": 1229,
  "920": 3505,
  "ĠArti": 1362,
  "Ġsignificative": 1428,
  "ĠdeleteSample": 3854,
  "Ġli": 995,
  "Ġauxiliary": 1425,
  "hbo": 2266,
  "ĠdÃ©codeur": 2332,
  "Ġprevents": 792,
  "ĠcreateSample": 2979,
  "`": 70,
  "Ġmobile": 2046,
  "543": 3349,
  "Ġcouch": 1848,
  "104": 3865,
  "282": 3499,
  "Ġchaque": 1548,
  "aload": 2596,
  "Edge": 2538,
  "ĠvalidateStatus": 4255,
  "|": 98,
  "ĠisList": 3072,
  "ble": 1014,
  "rib": 922,
  "555": 3610,
  "Ġcomputer": 2036,
  "326": 2945,
  "745": 2952,
  "623": 3675,
  "red": 2250,
  "apprentissage": 2119,
  "Ġ09": 1165,
  "ĠrÃ©": 236,
  "Ġ631": 4108,
  "Ġcompositeur": 1333,
  "five": 2234,
  "Ġ659": 3765,
  "Ġencodeur": 2193,
  "ĠmakeStatus": 3277,
  "lla": 910,
  "86198": 4294,
  "Ġ2000": 2726,
  "sday": 2392,
  "Ġmodification": 2189,
  "230": 3941,
  "Ġ2914": 4309,
  "Tensor": 1253,
  "ĠgetBlock": 3818,
  "ĠRMS": 474,
  "TX": 1109,
  "iGL": 2649,
  "Ġ3010": 4244,
  "ĠhasNode": 3558,
  "7636": 4271,
  "ĠfindLayer": 3851,
  "ĠmodÃ¨": 345,
  "947": 4005,
  "163": 3751,
  "277": 3559,
  "ĠconvertType": 3137,
  "ptional": 2578,
  "fic": 208,
  "221": 2884,
  "ĠgetStatus": 3111,
  "ĠRotary": 1773,
  "27": 1310,
  "p": 86,
  "ans": 578,
  "395": 3100,
  "ĠvalidateType": 4254,
  "963": 3893,
  "ariable": 1209,
  "Ġ256": 3719,
  "encode": 2614,
  "45": 2533,
  "Ġ08": 1171,
  "ĠgetNode": 2834,
  "187": 2899,
  "846": 2953,
  "ĠcomputeInfo": 3771,
  "Ġcognitif": 1982,
  "318": 3945,
  "lows": 1955,
  "ĠDeep": 1904,
  "886": 2882,
  "Ġsyste": 1473,
  "Ġst": 363,
  "__()": 2683,
  "dropout": 2660,
  "895": 3167,
  "ĠgetStack": 3528,
  "334": 3951,
  "Ġobj": 1140,
  "Ġtexts": 1567,
  "Ġwit": 373,
  "0020": 4032,
  "O": 54,
  "678": 3673,
  "ware": 671,
  "ois": 464,
  "Ã©s": 1650,
  "139": 3935,
  "aut": 2587,
  "action": 1075,
  "ĠbuildUser": 3284,
  "Ġ2002": 2723,
  "Ġnu": 549,
  "ĠfindStatus": 3849,
  "Ġstochas": 1320,
  "ception": 930,
  "ization": 261,
  "ĠdÃ©velop": 2252,
  "n": 84,
  "Ġ97": 2762,
  "ruit": 1534,
  "Ġprediction": 2312,
  "ĠtransformList": 3446,
  "ĠsetList": 2920,
  "722": 2888,
  "Ġdra": 1651,
  "Ġroutage": 583,
  "201": 3808,
  "327": 3183,
  "ratif": 2372,
  "0957": 4143,
  "Ġcolumn": 2060,
  "Ġmardi": 2504,
  "ze": 2641,
  "441": 3025,
  "eval": 2625,
  "Ġgrands": 1579,
  "Ġoutput": 1228,
  "4714": 4219,
  "2217": 4340,
  "Ġ4": 410,
  "Ġ+": 887,
  "ĠsetBlock": 3549,
  "598": 4264,
  "Ġ341": 4041,
  "078": 3039,
  "Ã©": 124,
  "Sw": 2648,
  "577": 2333,
  "version": 724,
  "ĠfindConfig": 3850,
  "tember": 2425,
  "78": 2356,
  "089": 3625,
  "188": 3483,
  "Ġsupp": 711,
  "Ġ239": 4023,
  "^": 68,
  "ĠparallÃ¨les": 1604,
  "Ġqual": 598,
  "705": 3882,
  "u": 91,
  "trage": 2256,
  "ĠÃ©tiqu": 2121,
  "ting": 265,
  "tif": 698,
  "tique": 981,
  "Ġ570": 4072,
  "231": 3943,
  "691": 3617,
  "ĠvalidateKind": 3154,
  "mÃ¨": 1688,
  "Ġ16": 2700,
  "ĠconvertEdge": 3566,
  "ĠgetState": 4207,
  "encodage": 1757,
  "ima": 1685,
  "T": 59,
  "est": 534,
  "Ġfunction": 1601,
  "36": 1265,
  "Ġphotorealistic": 1735,
  "919": 3700,
  "048": 3619,
  "Ġdele": 925,
  "nex": 1340,
  "988": 3066,
  "254": 3542,
  "525": 3656,
  "Ġmixture": 1918,
  "ĠgenerateStatus": 3861,
  "ĠdÃ©c": 714,
  "Ġdepend": 1064,
  "315": 2942,
  "Ġ21": 1993,
  "gits": 301,
  "353": 3537,
  "Ġ477": 4088,
  "ĠbuildQueue": 3287,
  "re": 125,
  "195": 3282,
  "om": 156,
  "838": 3209,
  "commerce": 1476,
  "Ġcouches": 1862,
  "Ġ788": 3776,
  "Ġ*": 749,
  "hboard": 2276,
  "943": 3710,
  "ĠdeleteKind": 3019,
  "2836": 4172,
  "Ġvalidation": 1031,
  "Ġ147": 4013,
  "den": 1142,
  "Ġone": 1770,
  "Ġconvert": 1456,
  "Ġcapabili": 1293,
  "ĠisEdge": 2960,
  "Ġtruncation": 2198,
  "ĠlÃ©gers": 2024,
  "ĠgenerateTensor": 3585,
  "4985": 4212,
  "298": 3823,
  "14": 569,
  "Ġtesting": 1638,
  "Ġexecution": 2299,
  "ĠgenerateLayer": 3335,
  "Ġ718": 3772,
  "Ġdatabase": 1667,
  "325": 3948,
  "706": 3605,
  "ĠhasStack": 3844,
  "one": 2594,
  "497": 2873,
  "ĠmakeMap": 3112,
  "odel": 354,
  "anciation": 1550,
  "ril": 1240,
  "392": 3634,
  "ĠmakeEdge": 3280,
  "307": 2847,
  "446": 3189,
  "se": 226,
  "204": 3508,
  "470": 4216,
  "ĠcanModel": 3859,
  "',": 2586,
  "ĠNovember": 2528,
  "Ġ)": 2405,
  "Ġchips": 2045,
  "tic": 476,
  "ĠsetTree": 3124,
  "304": 4153,
  "Ġlibrary": 2201,
  "odi": 799,
  "296": 2835,
  "ĠbuildStatus": 3833,
  "ĠMonday": 2457,
  "its": 251,
  "609": 3404,
  "ĠconvertTree": 3139,
  "438": 3393,
  "enty": 1696,
  "ĠshouldType": 3107,
  "ĠJuly": 2495,
  "Ġperte": 1413,
  "375": 4234,
  "onnais": 2090,
  "Ġassistants": 1518,
  "Ġpositionnel": 1782,
  "face": 1084,
  "uple": 669,
  "Ġof": 367,
  "Ġtrans": 243,
  "age": 194,
  "252": 4221,
  "filler": 758,
  "ĠN": 557,
  "curr": 612,
  "Ġ330": 3067,
  "ĠprocessEdge": 3491,
  "633": 3201,
  "Ġattribute": 1794,
  "701": 3880,
  "624": 3055,
  "Ġparallel": 895,
  "614": 3405,
  "ĠfindSample": 3319,
  "ais": 1079,
  ">": 37,
  "Ġalgorithme": 1963,
  "gment": 999,
  "Ġtwo": 1588,
  "us": 253,
  "645": 3971,
  "Ġsupported": 2179,
  "Ġ526": 4064,
  "upervis": 283,
  "Ġ2023": 2755,
  "ĠâĤ¬": 2485,
  "ĠE": 574,
  "826": 3423,
  "!": 8,
  "inateur": 2306,
  "599": 3955,
  "166": 2845,
  "ĠcreateVersion": 3513,
  "Ġcapabilities": 1303,
  "Ġresidual": 2226,
  "Ġstored": 2255,
  "758": 3208,
  "Ġconstante": 2212,
  "811": 3212,
  "416": 3638,
  "940": 3217,
  "ĠupdateList": 3090,
  "Ġimp": 695,
  "ĠDropout": 1421,
  "Ġfusion": 1992,
  "Ġsamp": 1063,
  "cle": 730,
  "Ġ123": 4147,
  "Line": 2677,
  "ine": 292,
  "67": 2708,
  "Ġ252": 4026,
  "Ġ73": 2747,
  "nchron": 1085,
  "Ġ55": 2742,
  "Ġdifference": 1628,
  "figu": 1751,
  "ĠM": 356,
  "ect": 2281,
  "Ġjointure": 2257,
  "ĠLe": 316,
  "cl": 2589,
  "452": 4282,
  "Ġconstant": 2227,
  "hot": 725,
  "203": 4187,
  "868": 3037,
  "ĠmÃ©": 400,
  "d": 74,
  "Type": 2145,
  "mber": 812,
  "Ġepoch": 1267,
  "539": 3957,
  "Ġencapsulation": 1094,
  "704": 3356,
  "tokens": 2554,
  "ĠhasBatch": 3127,
  "tri": 1647,
  "enÃª": 2018,
  "ĠagrÃ©gation": 2230,
  "ag": 944,
  "085": 4302,
  "Ġevaluate": 2639,
  "Ġexpert": 815,
  "flo": 1644,
  "Ġstatistique": 2365,
  "Ġ7": 442,
  "Ġalgorithm": 1934,
  "Ġaggre": 998,
  "ĠtransformEdge": 3226,
  "ĠaccÃ©lÃ©rateurs": 1665,
  "]": 67,
  "Ġdans": 1540,
  "Ġ392": 4037,
  "topk": 1512,
  "ĠcomputeList": 4115,
  "Ġ246": 3716,
  "iz": 196,
  "Ġdi": 291,
  "ĠsystÃ¨": 1474,
  "ĠâĤ½": 2487,
  "ss": 175,
  "119": 3937,
  "Ġdimensionnal": 2377,
  "Ġ3913": 4306,
  "Ġ660": 4109,
  "506": 2862,
  "ĠprocessBlock": 4167,
  "550": 3398,
  "eudi": 2459,
  "Ġpar": 295,
  "')": 1968,
  "zero": 2664,
  "Ġintegration": 1784,
  "364": 2991,
  "C": 42,
  "lus": 1835,
  "Kind": 2063,
  "5857": 4262,
  "Ġsampling": 1067,
  "Ġmechanisms": 1791,
  "aster": 1844,
  "Model": 2142,
  "gor": 1008,
  "ĠupdateEdge": 3800,
  "§": 103,
  "ies": 1867,
  "ĠsetSet": 3836,
  "ĠhasUser": 2879,
  "ondrement": 1404,
  "011": 3928,
  "Ġoptimized": 2039,
  "teint": 2074,
  "etÃ©es": 2115,
  "ĠÂ¥": 2502,
  "input": 1215,
  "ail": 797,
  "ctob": 1245,
  "Ġmobiles": 2047,
  "jo": 1531,
  "edding": 515,
  "490": 3530,
  "Ġ600": 3759,
  "Ġ1993": 2787,
  "962": 3169,
  "Ġbeam": 899,
  "Ġre": 165,
  "Ġ189": 4017,
  "ken": 213,
  "ĠdeleteStack": 3021,
  "Ġfe": 1088,
  "ĠtransformTensor": 3445,
  "Ġutil": 456,
  "Ġexec": 2290,
  "Ġloss": 320,
  "Ġ2027": 2694,
  "3174": 4339,
  "ĠvalidateState": 3591,
  "ads": 1598,
  "Ġ48": 2695,
  "dge": 1250,
  "ĠLayerNorm": 970,
  "399": 3182,
  "ĠdeleteConfig": 3855,
  "215": 3236,
  "anvi": 2427,
  "em": 230,
  "ĠupdateConfig": 3496,
  "593": 3872,
  "40": 1308,
  "ard": 455,
  "198": 3003,
  "Ġauthentification": 2171,
  "Ġcomp": 289,
  "Ġ76": 2681,
  "Ġ689": 4106,
  "Ġexploite": 1796,
  "ĠMarch": 2456,
  "Ġ678": 4103,
  "967": 4289,
  "259": 3832,
  "956": 3218,
  "342": 3600,
  "Ġave": 993,
  "ĠisUser": 2893,
  "aphore": 955,
  "844": 3062,
  "114": 2938,
  "Ġstep": 1048,
  "ĠprÃ©vient": 1436,
  "Ġconcurrence": 2275,
  "Ġreaches": 2097,
  "requ": 1611,
  "ĠdeleteQueue": 3572,
  "augmenter": 1929,
  "Norm": 483,
  "489": 3502,
  "Ġordinateur": 2314,
  "veill": 2349,
  "ĠcreateTensor": 3097,
  "Ġ666": 4105,
  "nific": 789,
  "511": 3960,
  "427": 3047,
  "ity": 497,
  "mergent": 735,
  "ds": 304,
  "Ġ2009": 2687,
  "Ġ554": 3750,
  "Ġajoute": 1594,
  "Ġ427": 4084,
  "ĠWed": 2418,
  "9279": 4186,
  "465": 3103,
  "Ġ1248": 4148,
  "Ġ612": 4107,
  "Ġ1998": 2722,
  "mp": 432,
  "Â": 111,
  "node": 1247,
  "Ġlig": 1875,
  "ĠNove": 2478,
  "785": 4276,
  "Ġanaly": 631,
  "676": 3408,
  "ĠGradient": 647,
  "Ġlibra": 2196,
  "Ġhyperdimension": 759,
  "ĠOctob": 2496,
  "earch": 1338,
  "ocal": 2068,
  "ĠmakeVersion": 3002,
  "man": 2013,
  "7": 30,
  "762": 4269,
  "cal": 349,
  "ĠĠĠĠĠĠĠĠĠĠĠ": 2808,
  "Ġlan": 384,
  "ĠshouldModel": 2988,
  "469": 2986,
  "voc": 2640,
  "aire": 882,
  "Ã©ra": 512,
  "Ġmob": 1071,
  "Ġ6314": 4335,
  "Ġmixte": 2175,
  "984": 3615,
  "pe": 340,
  "Ġ23": 2804,
  "42": 2558,
  "Ġnove": 2438,
  "ĠcanToken": 3581,
  "ĠprocessModel": 3243,
  "541": 3873,
  "In": 2302,
  "ges": 1684,
  "ances": 626,
  "¹": 109,
  "293": 3529,
  "ĠisBlock": 2959,
  "409": 3185,
  "urn": 1192,
  "952": 3708,
  "Ġas": 649,
  "71828": 2510,
  "Ġthe": 369,
  "Ġtrigger": 2360,
  "492": 3642,
  "Ġhumain": 1825,
  "ile": 2010,
  "P": 55,
  "Ġ2050": 2447,
  "65": 2821,
  "Ġc": 135,
  "508": 3235,
  "%": 12,
  "']": 990,
  "Ġcontex": 1105,
  "Ġnaturel": 1803,
  "Ġ{": 2413,
  "306": 3482,
  "Ġjo": 726,
  "ĠupdateKind": 3494,
  "ĠshouldSet": 4197,
  "Ġtransforms": 1358,
  "Ġsynth": 915,
  "Ġtaille": 1431,
  "772": 4274,
  "Ġsupervis": 687,
  "Ġso": 481,
  "830": 3421,
  "Ġmars": 2503,
  "822": 3425,
  "Ġ808": 3745,
  "905": 3364,
  "662": 3357,
  "823": 4000,
  "Ġcost": 1925,
  "ration": 433,
  "Ġacceler": 611,
  "ĠaccÃ©l": 610,
  "Ġnovembre": 2516,
  "ĠshouldKind": 3105,
  "pp": 404,
  "Ġprofil": 1028,
  "olution": 493,
  "uit": 833,
  "92": 1148,
  "Ġrow": 1995,
  "Ġ409": 3753,
  "Ġ657": 3761,
  "Ġdependencies": 1902,
  "ĠrÃ©gularisation": 1433,
  "gration": 1042,
  "oth": 2107,
  "Ġin": 164,
  "255": 3831,
  "Ġvend": 2449,
  "Ġisol": 1021,
  "ĠupdateStack": 3497,
  "ation": 143,
  "Ġreste": 1319,
  "eur": 344,
  "Ġ05": 1181,
  "Ġclassifie": 1584,
  "Ã©es": 2111,
  "Ġnorm": 599,
  "pÃ©ra": 2390,
  "Ġscientifique": 1372,
  "ĠList": 2576,
  "Ã©r": 537,
  "73": 2777,
  "3958": 4193,
  "Ġ26": 2752,
  "Ġcompression": 1418,
  "Ġ181": 4324,
  "287": 2974,
  "ayer": 699,
  "ĠÃ©vi": 1414,
  "Ġefficaces": 2055,
  "ary": 448,
  "fi": 160,
  "tÃ©": 2184,
  "tre": 992,
  "W": 62,
  "Ġjourn": 2339,
  "dition": 525,
  "Ġ926": 4132,
  "ur": 158,
  "ĠbuildToken": 3547,
  "en": 120,
  "Ġrevolutionized": 1804,
  "ma": 380,
  "cheur": 2288,
  "Ġhuit": 1555,
  "Ġfeedback": 1519,
  "Ġ": 114,
  "stÃ¨": 1468,
  "Ġfonction": 2188,
  "Ġanalysis": 1577,
  "17": 1307,
  "Ġ4207": 4092,
  "ential": 1888,
  "ĠLes": 306,
  "ĠcomputeBatch": 3078,
  "inf": 343,
  "ciation": 709,
  "vis": 262,
  "Ġjanvier": 2524,
  "Ġsyn": 522,
  "ptim": 259,
  "Ġjeudi": 2464,
  "<en>": 7,
  "ĠÃ©viter": 1561,
  "303": 2863,
  "gressive": 630,
  "707": 4277,
  "847": 2956,
  "function": 2581,
  "281": 3802,
  "Ġsystems": 1488,
  "eu": 371,
  "ĠprocessTree": 3490,
  "Ġ75": 2782,
  "ĠupdateMap": 2902,
  "s": 89,
  "Ġsentiments": 1592,
  "04": 2788,
  "v": 92,
  "481": 3804,
  "iable": 1207,
  "Ġ8": 357,
  "J": 49,
  "ĠparamÃ¨": 1708,
  "159": 2364,
  "parameters": 1856,
  "ĠtransformMap": 3448,
  "ĠtransformStatus": 3736,
  "cution": 2203,
  "__": 1161,
  "ĠprÃ©pro": 1959,
  "Ġdependency": 2197,
  "ĠrÃ©gular": 1412,
  "bli": 2105,
  "Ġdimanche": 2477,
  "bog": 1635,
  "ĠRMSNorm": 900,
  "G": 46,
  "ĠcreateGraph": 3811,
  "06": 2546,
  "819": 2955,
  "State": 2263,
  "345": 3030,
  "247": 2832,
  "Ġ12": 650,
  "Ġ136": 3712,
  "585": 3343,
  "876": 3691,
  "1652": 4075,
  "duces": 486,
  "ment": 178,
  "Ġg": 177,
  "ĠÃ©pisodique": 1458,
  "ĠsÃ©parable": 1958,
  "ĠgetConfig": 2914,
  "ĠGamma": 2470,
  "566": 3135,
  "Ġ578": 4071,
  "0905": 4177,
  "Ġtranslat": 1822,
  "Ġrouteur": 1732,
  "Ġ877": 4054,
  "ample": 269,
  "perature": 708,
  "redi": 2421,
  "ĠtransformConfig": 4044,
  "Ġ03": 1220,
  "402": 3841,
  "dict": 1655,
  "es": 122,
  "380": 3805,
  "Ġz": 776,
  "rialisation": 1881,
  "Ġsy": 364,
  "train": 1870,
  "890": 3165,
  "orce": 502,
  "cog": 2632,
  "502": 2897,
  "2081": 4188,
  "ĠÃ©chelle": 1298,
  "821": 3991,
  "ĠcreateTree": 3099,
  "261": 4194,
  "motions": 840,
  "930": 3699,
  "self": 2217,
  "605": 3897,
  "itance": 1639,
  "478": 3829,
  "Ġcal": 1917,
  "961": 3035,
  "635": 3199,
  "Ġ2012": 2757,
  "Ġwith": 539,
  "Ġdiscriminant": 2369,
  "Ġanalyse": 2195,
  "Ġdes": 276,
  "Ġover": 779,
  "Ġ715": 4120,
  "weights": 1390,
  "Ġappli": 859,
  "Ã©ri": 377,
  "all": 888,
  "Ġrepresentations": 1895,
  "Ġnativement": 2177,
  "389": 4178,
  "660": 4278,
  "ĠgenerateQueue": 3149,
  "Ġ01": 1203,
  "3950": 4191,
  "642": 3056,
  "odeur": 2329,
  "Ġshort": 1542,
  "568": 3309,
  "ugu": 2395,
  "766": 4270,
  "883": 3348,
  "une": 2394,
  "578": 4165,
  "Ġload": 785,
  "Ġdatasets": 1429,
  "932": 3219,
  "ĠcomputeGraph": 4116,
  "U": 60,
  "156": 4161,
  "1572": 4164,
  "Ã©rateurs": 1662,
  "926": 3507,
  "971": 4295,
  "chanisms": 1749,
  "onnÃ©": 616,
  "987": 3222,
  "riday": 2442,
  "ĠupdateTree": 3248,
  "dit": 1119,
  "291": 3822,
  "Ġinstantiation": 2194,
  "elta": 2430,
  "+": 18,
  "ĠmakeToken": 3279,
  "Ġconfiguration": 1806,
  "789": 3354,
  "<think>": 4,
  "81": 2791,
  "554": 2950,
  "Ġartificielle": 1375,
  "Ġhas": 1309,
  "521": 3650,
  "lpha": 2386,
  "Ġ69": 2714,
  "ĠTuesday": 2448,
  "Ġ10": 459,
  "Ġtwenty": 1719,
  "436": 2855,
  "asing": 1919,
  "Ġdecoding": 648,
  "Ġscal": 804,
  "067": 3609,
  "Ġscienti": 770,
  "Ġapplique": 1618,
  "Ġmask": 1747,
  "Ġ82": 2766,
  "Ġ25": 2772,
  "ĠmakeTree": 4213,
  "ĠgetTensor": 4206,
  "res": 205,
  "681": 3912,
  "Ġpackage": 1098,
  "Ġmodel": 298,
  "Ġ909": 4129,
  "Ġra": 496,
  "af": 1495,
  "Ġsto": 606,
  "lates": 1785,
  "Ġtheta": 2460,
  "727": 3059,
  "405": 3126,
  "340": 3949,
  "Ġtier": 1599,
  "Ġ758": 4124,
  "ĠgenerateKind": 4251,
  "3610": 4203,
  "iement": 1736,
  "Ġengineering": 1190,
  "ĠprocessQueue": 3088,
  "Ġrecurrent": 2545,
  "200": 3940,
  "363": 4200,
  "636": 3664,
  "861": 3613,
  "ĠSunday": 2518,
  "ĠgenerateSet": 4253,
  "step": 561,
  "Ġ6699": 4299,
  "di": 167,
  "774": 4275,
  "Ġ2": 188,
  "673": 3910,
  "ĠprÃ©production": 1966,
  "077": 3926,
  "ĠcreateState": 3259,
  "Ġ100": 622,
  "Ġrivals": 1830,
  "optim": 728,
  "77": 2279,
  "vri": 2397,
  "ling": 1061,
  "Ġtransform": 352,
  "ue": 2318,
  "Ġ637": 4100,
  "ĠconvertData": 3565,
  "ĠspÃ©cialisÃ©s": 1680,
  "Ġfi": 2017,
  "229": 2941,
  "ord": 1132,
  "Ġdim": 555,
  "612": 3972,
  "phis": 1056,
  "lo": 189,
  "Ġ37": 2679,
  "Ġforeign": 1938,
  "ropo": 702,
  "532": 3401,
  "ork": 484,
  "Ġont": 1771,
  "628": 3053,
  "324": 3635,
  "ĠshouldSample": 2987,
  "528": 3956,
  "ĠshouldNode": 3524,
  "Ġsur": 716,
  "Ġord": 2305,
  "bqu": 1971,
  "len": 2284,
  "5729": 3795,
  "Ġ90": 2748,
  "387": 2977,
  "746": 3979,
  "Ġuni": 646,
  "374": 3560,
  "753": 2889,
  "Ġ415": 4077,
  "969": 3366,
  "Ġworking": 1457,
  "2": 25,
  "sel": 2204,
  "14159": 2479,
  "Ã¨que": 2118,
  "Ġmutex": 1108,
  "Ġdelta": 2474,
  "gent": 732,
  "747": 3682,
  "Ġ216": 4020,
  "902": 3168,
  "Ġsepte": 2454,
  "Ġvectorielles": 1396,
  "11": 2366,
  "el": 145,
  "alis": 241,
  "ĠmakeGraph": 3276,
  "Ġshould": 1262,
  "Ġ946": 4133,
  "DP": 847,
  "squ": 2626,
  "min": 737,
  "Ġthrou": 912,
  "Ġauto": 2082,
  "Ġinst": 546,
  ";": 34,
  "ĠsetModel": 3551,
  "Ġtokenizer": 2615,
  "058": 3923,
  "aque": 1527,
  "uch": 1837,
  "ĠvalidateTensor": 3863,
  "uld": 1261,
  "phÃ©ri": 2037,
  "Ġextrapo": 938,
  "Ġlivra": 1629,
  "alid": 625,
  "meters": 1851,
  "ĠisSet": 2895,
  "elles": 774,
  "072": 3903,
  "<": 35,
  "Ġaccelerators": 1666,
  "inture": 2254,
  "ĠvalidateUser": 3153,
  "Ġrecomm": 587,
  "Ġincre": 1002,
  "ĠPost": 1778,
  "Ġ825": 4050,
  "Ġepisodic": 1454,
  "alig": 1505,
  "Ġwww": 2451,
  "56": 1381,
  "Ġ98": 2706,
  "Ġconnections": 1376,
  "Ġ476": 4087,
  "Ġ883": 4317,
  "Ġbitsandbytes": 1117,
  "ri": 180,
  "127": 3938,
  "ĠdeleteTensor": 3853,
  "ĠintÃ©gration": 2199,
  "553": 3403,
  "Ġwindow": 2059,
  "Ġoptim": 312,
  "ĠprÃ©vi": 1419,
  "entropy": 1697,
  "range": 941,
  "Ġinheritance": 1642,
  "pis": 798,
  "Ġassociation": 1205,
  "ĠcanStack": 2850,
  "ĠconvertUser": 3013,
  "Ġ96": 2667,
  "ĠSpe": 996,
  "Ġ458": 4086,
  "Ġhumaine": 2087,
  "utils": 1485,
  "825": 3993,
  "Ġ33": 2693,
  "Ġ777": 3777,
  "138": 3379,
  "479": 3830,
  "171": 2877,
  "analyse": 1595,
  "4119": 4285,
  "348": 3633,
  "Ġdiscrimin": 1173,
  "antillonn": 2156,
  "Ġneuron": 969,
  "Ġtransfer": 1206,
  "chine": 1025,
  "r": 88,
  "ĠgÃ©nÃ©ratif": 2376,
  "140": 3786,
  "rent": 1384,
  "41421": 2511,
  "180": 2967,
  "ain": 619,
  "Ġ9": 472,
  "othÃ¨que": 2133,
  "ĠcomputeState": 3770,
  "To": 2344,
  "analy": 1549,
  "ĠsÃ©curitÃ©": 1525,
  "Ġ40": 1614,
  "ser": 277,
  "abili": 1291,
  "ctor": 777,
  "Ġproduit": 1699,
  "ant": 319,
  "Ġ54": 2741,
  "Ġ1999": 2682,
  "Ã©lisation": 2123,
  "Ġ39": 2688,
  "367": 3267,
  "168": 2338,
  "ĠcreateUser": 2868,
  "649": 3666,
  "449": 3953,
  "Ġ6": 434,
  "plo": 500,
  "Ġto": 174,
  "Ġasynchrone": 2095,
  "ĠsÃ©qu": 893,
  "47": 1279,
  "Ġ925": 4135,
  "c": 73,
  "384": 2621,
  "B": 41,
  "ĠcomputeConfig": 3080,
  "ĠisKind": 2858,
  "cialisÃ©s": 1658,
  "Info": 2313,
  "990": 3077,
  "âĤ": 623,
  "Ġscheduler": 2572,
  "ĠZeta": 2498,
  "Ġ2006": 2768,
  "ĠhasMap": 3128,
  "167": 2961,
  "ĠbuildState": 3834,
  "Ġlabels": 2584,
  "onn": 644,
  "ĠfranÃ§ais": 2098,
  "Ġsaf": 1503,
  "size": 2642,
  "437": 3192,
  "ielles": 1383,
  "chilla": 911,
  "580": 3867,
  "ĠÃ©": 266,
  "096": 3234,
  "ĠprocessMap": 2848,
  "320": 2944,
  "Ġ==": 1242,
  "pÃ©": 1646,
  "uin": 2393,
  "Ġpres": 1745,
  "040": 3375,
  "als": 1819,
  "397": 2983,
  "Ġstaging": 956,
  "Ġdecoupled": 771,
  "rentissage": 902,
  "617": 2951,
  "clip": 2570,
  "Ġaler": 1134,
  "Ã©l": 414,
  "ĠexÃ©cution": 2207,
  "rement": 601,
  "ĠĠĠĠĠĠĠĠĠĠĠĠ": 2721,
  "90": 2543,
  "Ġ760": 3779,
  "ĠvalidateBlock": 3152,
  "ĠSparseMoEBlock": 2551,
  "888": 3599,
  "tensor": 1196,
  "bit": 550,
  "Ġnois": 835,
  "Ġincreases": 1932,
  "787": 3353,
  "ĠsÃ©": 245,
  "71": 3975,
  "708": 3606,
  "ack": 884,
  "ĠfindBatch": 3569,
  "Ġdramatically": 1678,
  "Ġutilisateur": 1478,
  "Ġwind": 2034,
  "ĠgetModel": 3527,
  "Ġclassi": 491,
  "Ġprogram": 1157,
  "N": 53,
  "Ġparall": 482,
  "519": 3400,
  "ĠparallÃ©lisation": 2124,
  "Ġapprennent": 1910,
  "572": 3240,
  "Ġtrun": 2186,
  "Ġtraduction": 1826,
  "945": 3220,
  "o": 85,
  "ckÃ©e": 1656,
  "ĠsetState": 3122,
  "236": 3388,
  "Ġavant": 852,
  "i": 79,
  "Ġselects": 1596,
  "Ġupdate": 968,
  "tary": 1738,
  "Ġauxili": 791,
  "sion": 210,
  "ĠsetSample": 2921,
  "149": 3084,
  "ĠdÃ©codage": 1789,
  "3022": 4155,
  "5597": 3961,
  "Ġquanti": 934,
  "877": 3211,
  "222": 2936,
  "ĠmakeSample": 3000,
  "Ġbnb": 2657,
  "ĠdÃ©": 270,
  "met": 413,
  "Ġsuppression": 2228,
  "â": 113,
  "isation": 368,
  "173": 3838,
  "ociation": 1202,
  "forcement": 1496,
  "Ġ9449": 4328,
  "chun": 2663,
  "¥": 102,
  "Ã®": 675,
  "574": 3087,
  "Ġ7806": 3908,
  "Ġ156": 3713,
  "805": 3171,
  "sidu": 1347,
  "graph": 1212,
  "Ġ219": 4024,
  "Ġsho": 1260,
  "Ġautomati": 1029,
  "629": 3665,
  "60": 2608,
  "Ġinput": 1878,
  "lation": 1817,
  "178": 3839,
  "Ġdeployment": 2134,
  "Ġ3090": 1114,
  "ĠvalidateSample": 3339,
  "Ġparallelization": 1858,
  "ĠcanBatch": 4249,
  "Ġtorch": 498,
  "369": 3526,
  "Ġan": 494,
  "ĠcreateConfig": 2907,
  "192": 3041,
  "Ġune": 1974,
  "usion": 632,
  "3834": 4179,
  "ws": 1950,
  "run": 2183,
  "MS": 471,
  "Ġtrois": 1451,
  "Ġpair": 1821,
  "Ġpolymorphis": 1060,
  "907": 3891,
  "ĠhiÃ©rarchique": 1453,
  "428": 3392,
  "ffusion": 1710,
  "Ġremains": 1328,
  "\\": 66,
  "394": 3517,
  "916": 3428,
  "ĠmakeNode": 3535,
  "4854": 4175,
  "509": 2946,
  "615": 3198,
  "Ġrema": 1317,
  "ĠsetConfig": 2922,
  "ption": 447,
  "ĠsystÃ¨mes": 1489,
  "ci": 257,
  "dam": 807,
  "Ġasynchron": 1093,
  "ĠdeleteToken": 3144,
  "Ġdecouple": 769,
  "device": 2044,
  "ĠhasConfig": 3008,
  "aux": 869,
  "ĠrequÃªte": 2164,
  "494": 3824,
  "enaliz": 1538,
  "103": 4259,
  "365": 4201,
  "70": 2362,
  "util": 1463,
  "Ġcompo": 487,
  "ors": 920,
  "695": 4329,
  "Ġle": 235,
  "Ġ226": 3223,
  "aliz": 823,
  "Ġ614": 3760,
  "Ġencoder": 412,
  "ac": 415,
  "ators": 1654,
  "ĠconvertGraph": 2839,
  "Ġ199": 627,
  "552": 3051,
  "ĠcomputeKind": 3468,
  "865": 3900,
  "ren": 621,
  "E": 44,
  "779": 3031,
  "ĠcomputeToken": 2861,
  "6": 29,
  "erar": 863,
  "Ġsont": 1344,
  "Ġsentiment": 1541,
  "Ã©cution": 2205,
  ":": 33,
  "ĠsetNode": 2923,
  "Ġcolonne": 2327,
  "Ġoutputs": 1727,
  "dom": 945,
  "ĠcomputeMap": 3467,
  "state": 681,
  "sample": 1224,
  "Ġposition": 531,
  "948": 4004,
  "Ġmodern": 1369,
  "ont": 1342,
  "feu": 1866,
  "Ġsequence": 2331,
  "Ġhttp": 2453,
  "ĠconvertLayer": 3315,
  "arn": 425,
  "Ġ629": 4099,
  "263": 3261,
  "MoE": 642,
  "882": 3597,
  "end": 375,
  "ĠcomputeVersion": 3232,
  "Ġsignificant": 1427,
  "ĠhasData": 3129,
  "or": 133,
  "Ġsans": 864,
  "Ġvpn": 2320,
  "Ġ36": 2715,
  "classes": 2604,
  "Ġsoftware": 2325,
  "34": 2218,
  "Ġpadding": 976,
  ")": 16,
  "567": 2881,
  "Ġ425": 3463,
  "ĠgenerateEdge": 3589,
  "859": 3996,
  "019": 3620,
  "gu": 323,
  "Ġ366": 3731,
  "<fr>": 6,
  "Ġdimension": 1176,
  "Ġrevolution": 1754,
  "246": 3257,
  "Ġb": 168,
  "ural": 1739,
  "ke": 803,
  "832": 3692,
  "sis": 1535,
  "day": 401,
  "iver": 1945,
  "ĠdÃ©pend": 951,
  "Ġ870": 3456,
  "ĠfindToken": 3141,
  "ĠSpeech": 2092,
  "Ġsample": 2346,
  "158": 3086,
  "chastic": 1322,
  "nelle": 1774,
  "ties": 1284,
  "Ġ437": 4085,
  "ype": 519,
  "911": 3705,
  "824": 3061,
  "ĠsetInfo": 3296,
  "Ġoverfitting": 1438,
  "ĠTheta": 2506,
  "supervis": 409,
  "ensor": 507,
  "Ver": 2335,
  "285": 3803,
  "ĠdeleteStatus": 3328,
  "alisent": 1471,
  "Ġ1000000": 2483,
  "Ġ2966": 4310,
  "serve": 1763,
  "343": 3877,
  "iences": 1459,
  "587": 4261,
  "Ġ52": 2805,
  "Ġfind": 1493,
  "Ġcollapse": 1435,
  "Ġdataload": 2600,
  "871": 3367,
  "Ġvirtuels": 1526,
  "Ġ2029": 2680,
  "917": 3701,
  "689": 3674,
  "Ġtem": 552,
  "ĠagrÃ©gat": 2296,
  "able": 350,
  "Ġmercredi": 2515,
  "lon": 762,
  "Ġpenaliz": 1543,
  "Ġn": 161,
  "Ġ500": 2465,
  "images": 1729,
  "Ġhyperdimensional": 1334,
  "mean": 1204,
  "ized": 513,
  "783": 3352,
  "Ġ14": 2770,
  "ĠprocessList": 4168,
  "3814": 3807,
  "().": 2330,
  "ĠdeleteType": 3142,
  "Ġpoly": 1055,
  "dex": 1143,
  "Ġclassifies": 1585,
  "onnalisent": 1479,
  "ĠprÃ©": 339,
  "erce": 1466,
  "ĠC": 393,
  "897": 3360,
  "Ġadversaire": 2002,
  "Ġ5": 385,
  "350": 3042,
  "infÃ©r": 986,
  "Ġlong": 1892,
  "alization": 1612,
  "028": 3919,
  "anti": 294,
  "ĠS": 220,
  "Stat": 2144,
  "gence": 508,
  "vironment": 1978,
  "4747": 4220,
  "Ġ495": 4313,
  "block": 1223,
  "Ġaout": 2423,
  "863": 3368,
  "ĠÃ©motions": 1560,
  "Ġ1000": 2482,
  "ryption": 1005,
  "Ġ46": 2713,
  "754": 3060,
  "pha": 1244,
  "638": 3663,
  "Ġ1991": 2734,
  "gres": 374,
  "5439": 4267,
  "308": 4154,
  "Ġgradient": 560,
  "ĠhÃ©ritage": 2315,
  "703": 3355,
  "fil": 532,
  "ro": 141,
  "ĠÃ©tiquetÃ©es": 2137,
  "390": 3813,
  "Ġgran": 761,
  "ĠmÃ©thode": 1634,
  "ĠvalidateToken": 4256,
  "ĠD": 405,
  "tep": 402,
  "ĠgenerateMap": 3148,
  "reed": 1130,
  "lab": 2619,
  "Ġwithout": 868,
  "ĠRecommender": 1482,
  "erm": 1840,
  "ĠSto": 1318,
  "Ġsemantic": 790,
  "tte": 1949,
  "Ġsurveillance": 2354,
  "Ġmomentum": 1327,
  "ĠĠĠ": 430,
  "ĠRe": 820,
  "uper": 275,
  "ĠvalidateBatch": 2931,
  "ĠshouldLayer": 2912,
  "Ġ902": 4330,
  "Ġrout": 337,
  "dding": 972,
  "Ġ86": 2729,
  "Ġconvergence": 1153,
  "Ġexplo": 931,
  "713": 3414,
  "644": 3671,
  "Ġ7910": 3914,
  "5": 28,
  "ĠcreateStack": 2908,
  "Ġ~": 2416,
  "ph": 309,
  "Ġ127": 2375,
  "ĠhasSample": 3843,
  "Ġvariable": 1211,
  "int": 390,
  "Ġ1996": 2690,
  "Ġperform": 609,
  "Z": 64,
  "ĠsetType": 3295,
  "80": 2583,
  ".": 21,
  "pat": 396,
  "Queue": 2004,
  "9206": 4185,
  "gate": 739,
  "ĠtransformTree": 3737,
  "Ġeta": 2435,
  "560": 3561,
  "Ġ376": 4040,
  "Ġ1": 184,
  "ĠsÃ©quence": 1619,
  "Ġ64": 2760,
  "ortÃ©e": 2160,
  "ender": 1475,
  "Ġthirt": 2238,
  "date": 961,
  "Ġresearch": 1364,
  "Ġ449": 4081,
  "Ġroute": 1701,
  "458": 3646,
  "191": 3281,
  "rÃ©": 176,
  "Ġdivergence": 839,
  "941": 3709,
  "445": 3344,
  "033": 3929,
  "info": 1159,
  "rti": 764,
  "ĠdÃ©bog": 1641,
  "Ġbatch": 678,
  "/": 22,
  "yping": 2574,
  "rom": 824,
  "indices": 1521,
  "let": 2432,
  "oc": 1947,
  "775": 3351,
  "vel": 700,
  "Ġproxy": 1020,
  "473": 3539,
  "4851": 4176,
  "Ġfran": 2078,
  "Ġriv": 954,
  "131": 3160,
  "107": 4260,
  "Ġdata": 664,
  "Ġfil": 1120,
  "itor": 1080,
  "2048": 2645,
  "ĠcanTree": 3582,
  "Ġ258": 4025,
  "type": 874,
  "Ġautore": 1764,
  "Ġconversational": 2099,
  "Ġdopent": 1679,
  "ĠautorÃ©gressif": 1811,
  "tÃªtes": 1905,
  "749": 3681,
  "ĠâĤ¹": 2486,
  "ĠÂ£": 2501,
  "mÃ©l": 1498,
  "po": 207,
  "Ġhyperdimensionnel": 1335,
  "ance": 314,
  "002": 4031,
  "Ġsocial": 1570,
  "GL": 2647,
  "799": 3057,
  "Ġpenalizes": 1593,
  "Ġbf": 1111,
  "pid": 1836,
  "ion": 427,
  "Ġ1386": 4019,
  "tions": 834,
  "Ġdataset": 880,
  "Ġdu": 348,
  "gat": 2282,
  "005": 3726,
  "iseur": 2149,
  "702": 3881,
  "ĠcreateToken": 3098,
  "305": 2898,
  "PE": 465,
  "Ġ13": 2709,
  "Ġfevrier": 2530,
  "Ġtype": 2307,
  "Ġdist": 1874,
  "162": 3075,
  "ener": 444,
  "ĠsupervisÃ©": 1023,
  "482": 3092,
  "Ġreads": 1600,
  "ĠrÃ©inforcement": 1996,
  "anuary": 2429,
  "85": 2810,
  "ep": 1158,
  "Ġstochastique": 1330,
  "Ġ61": 2781,
  "esis": 1691,
  "ĠhasType": 3303,
  "ĠSeparable": 1956,
  "cross": 1683,
  "arch": 424,
  "Ġthan": 1850,
  "ĠdeleteInfo": 3143,
  "Ġpreserves": 1802,
  "ĠshouldQueue": 2911,
  "Adam": 1270,
  "ĠmakeList": 2916,
  "Ġoptimization": 641,
  "ĠdeleteState": 3575,
  "Ġoptimisation": 2210,
  "ire": 317,
  "419": 3644,
  "Ġdemands": 2057,
  "ex": 209,
  "tect": 1039,
  "ĠFusedSwiGLU": 2655,
  "Ġrecommandation": 1483,
  "ĠdeleteUser": 2849,
  "477": 3540,
  "980": 3711,
  "Ġ588": 4069,
  ").": 1597,
  "Ġlogging": 2190,
  "D": 43,
  "Ġhtt": 335,
  "ĠtransformType": 2892,
  "049": 2937,
  "Ġ546": 4065,
  "880": 3029,
  "rchi": 488,
  "ĠfindUser": 3317,
  "ĠisType": 3457,
  "ransform": 655,
  "ĠmakeUser": 2997,
  "ĠÃ©mergent": 1292,
  "Ġ916": 4128,
  "tats": 1712,
  "Ġhierarchical": 873,
  "Ġprimaire": 2243,
  "748": 3411,
  "Ġdomin": 746,
  "3696": 4205,
  "Ġ196": 4018,
  "ĠisNode": 4058,
  "alise": 883,
  "ck": 219,
  "Ġ79": 2731,
  "Ġterm": 1842,
  "ł": 116,
  "Ġ586": 4073,
  "<code>": 5,
  "lr": 1118,
  "sentations": 1869,
  "Ġaugmenter": 1926,
  "Ġprompt": 979,
  "761": 3162,
  "Ġconne": 1350,
  "Ġutilise": 604,
  "=-": 1864,
  "Ġ490": 4090,
  "loss": 328,
  "ĠgenerateTree": 2930,
  "ĠprÃ©diction": 2323,
  "ucle": 2286,
  "Ġdashboard": 2277,
  "ĠStochastic": 1329,
  "Ġinte": 582,
  "gers": 2009,
  "Ġup": 668,
  "110": 3939,
  "ft": 1033,
  "Ġphotorealis": 1730,
  "297": 3274,
  "w": 93,
  "cli": 2567,
  "ĠsetGraph": 3294,
  "ĠamÃ©l": 1504,
  "Ġ3614": 4319,
  "ĠconvertStack": 3138,
  "ĠgenerateType": 3587,
  "training": 973,
  "998": 3769,
  "21": 731,
  "Ġemergent": 1287,
  "ĠgÃ©nÃ©": 684,
  "594": 3027,
  "Ġhigh": 836,
  "223": 4272,
  "Ġadmin": 2475,
  "alisÃ©s": 1657,
  "Ġnet": 658,
  "cialized": 1668,
  "commender": 1477,
  "485": 4173,
  "els": 591,
  "ĠsetStack": 3552,
  "670": 3970,
  "Ġmasque": 2341,
  "Ġ2010": 2707,
  "effondrement": 1430,
  "odage": 929,
  "Ġma": 359,
  "Ġ192": 2374,
  "Ġhard": 909,
  "Ġ])": 2624,
  "Ġ62": 2745,
  "ive": 1439,
  "Node": 2334,
  "Ġalerting": 2215,
  "ĠtransformData": 2816,
  "rics": 1558,
  "ĠEDT": 1155,
  "Ġ378": 3730,
  "Ġ328": 3728,
  "ĠshouldTree": 3525,
  "Ġinference": 689,
  "ĠisStack": 3230,
  "Ġ515": 4061,
  "ĠcreateSet": 3260,
  "Ġtransformer": 1078,
  "475": 4218,
  "vely": 2165,
  "fication": 288,
  "Ġ3825": 4326,
  "090": 1073,
  "I": 48,
  "ĠcomputeSample": 3079,
  "erche": 772,
  "Ġ65": 2730,
  "Ġ746": 3471,
  "Ġlivraison": 1630,
  "Ġactive": 943,
  "ĠfindSet": 3018,
  "edSw": 2651,
  "ĠbuildModel": 3005,
  "268": 3814,
  "ĠFebruary": 2525,
  "Ġdiscriminative": 2003,
  "ĠbuildTree": 3548,
  "097": 4141,
  "ĠcanSample": 3330,
  "936": 3430,
  "ut": 159,
  "ap": 231,
  "ĠJanuary": 2494,
  "pn": 2317,
  "18": 747,
  "ne": 254,
  "870": 3426,
  "86": 2630,
  "ĠtransformState": 3451,
  "ĠshouldBlock": 3815,
  "Ġselection": 881,
  "ĠupdateState": 2904,
  "903": 3363,
  "ree": 1070,
  "904": 3890,
  "Ġ396": 4043,
  "Ġsorting": 2174,
  "ĠsetMap": 3292,
  "515": 2947,
  "Ġ939": 4131,
  "ĠcreateInfo": 2981,
  "Ġve": 1385,
  "ĠcomputeLayer": 3231,
  "parable": 1022,
  "Ġf": 171,
  "gging": 1135,
  "996": 4112,
  "ired": 1356,
  "Ġpromp": 975,
  "Q": 56,
  "347": 3947,
  "ĠdeleteVersion": 4247,
  "ĠprocessGraph": 2864,
  "ĠgenerateInfo": 3337,
  "Ġpa": 234,
  "0944": 4145,
  "ĠChin": 913,
  "Ġ?": 2408,
  "764": 3875,
  "900": 3214,
  "cessaires": 1363,
  "Ġassistant": 1517,
  "cs": 1528,
  "Ġ749": 3472,
  "eural": 600,
  "ir": 637,
  "ĠsÃ©lection": 596,
  "ĠprocessLayer": 2971,
  "Ġ518": 4060,
  "ĠdeleteBatch": 3325,
  "674": 3616,
  "ow": 1218,
  "Ġmoder": 766,
  "Ġoctob": 2443,
  "ĠĠĠĠ": 182,
  "894": 3608,
  "mi": 1532,
  "Ġ58": 2784,
  "896": 3887,
  "ĠpÃ©riphÃ©riques": 2062,
  "ĠpÃ©nalise": 1544,
  "Ġclassification": 1100,
  "Ġinstance": 1213,
  "DT": 1149,
  "Ġautorisation": 2122,
  "cature": 2316,
  "psi": 1233,
  "ĠgenerateModel": 3151,
  "ara": 652,
  "embedding": 1957,
  "Ġ613": 4102,
  "Ġobject": 2295,
  "Ġ628": 4095,
  "Ġ$": 2401,
  "219": 4152,
  "Ġexige": 2032,
  "517": 3958,
  "k": 81,
  "gÃ¨": 2283,
  "ĠcreateMap": 2833,
  "393": 3516,
  "Ġen": 720,
  "orization": 2025,
  "Ġreinforcement": 2347,
  "ĠgetInfo": 4208,
  "ĠfindVersion": 3852,
  "cess": 571,
  "435": 3190,
  "eline": 1152,
  "Ġdebu": 2222,
  "ĠJune": 2493,
  "ĠSparsification": 971,
  "fr": 2384,
  "267": 3101,
  "Ġgeneration": 935,
  "ĠDe": 1160,
  "Ġ2025": 1514,
  "Ġauthenti": 926,
  "£": 101,
  "enc": 206,
  "ĠprocessBatch": 3486,
  "Hello": 2617,
  "Ġmai": 2458,
  "116": 3933,
  "num": 2556,
  "249": 3095,
  "697": 3410,
  "499": 3639,
  "Ġfevri": 2497,
  "ĠCog": 750,
  "Ġneur": 964,
  "@": 39,
  "Ġ%": 2402,
  "Ġout": 721,
  "bas": 1682,
  "Ġ653": 4104,
  "Ġvingt": 1707,
  "per": 172,
  "rogressive": 962,
  "743": 3418,
  "inforcement": 680,
  "Ġlabeled": 2131,
  "mor": 1053,
  "8877": 4266,
  "Ġdeplo": 2114,
  "ĠcanConfig": 3580,
  "ĠrÃ©current": 2358,
  "alignement": 1524,
  "ding": 297,
  "Ġnucleus": 1178,
  "976": 3432,
  "ith": 1009,
  "ĠNoisy": 1574,
  "0000": 2452,
  "ĠshouldGraph": 3816,
  "Ġ417": 3754,
  "erial": 718,
  "Ġweight": 2081,
  "ĠbuildLayer": 3289,
  "ping": 2573,
  "Ġblock": 2311,
  "ĠSDP": 849,
  "ĠcreateNode": 2982,
  "Ġ!=": 2500,
  "946": 3429,
  "892": 3422,
  "052": 3930,
  "Ġ<": 808,
  "ĠDi": 1217,
  "Ġ85": 2779,
  "ĠfindTree": 3322,
  "R": 57,
  "Ġcount": 1417,
  "ModuleList": 2637,
  "Ġattrib": 923,
  "Ġprofilage": 1607,
  "Ġ8416": 4320,
  "Ġreach": 2076,
  "Ġtableau": 1857,
  "Ġutilis": 457,
  "ĠrÃ©seaux": 1903,
  "psilon": 1246,
  "388": 3504,
  "chi": 279,
  "ĠdimensionnalitÃ©": 2378,
  "283": 3091,
  "Ġ1997": 2699,
  "Ġlarge": 1546,
  "rou": 607,
  "834": 3693,
  "ĠThursday": 2507,
  "llap": 1410,
  "102": 4258,
  "601": 3172,
  "ĠfindInfo": 4246,
  "ĠmakeData": 3113,
  "val": 2070,
  "labels": 2622,
  "mage": 1687,
  "ĠmakeTensor": 3825,
  "106": 3593,
  "Ġ907": 4140,
  "entraÃ®ner": 1962,
  "Ġscientific": 1371,
  "Ġ17": 2740,
  "tention": 1871,
  "mer": 734,
  "Config": 2232,
  "Ġ260": 3723,
  "sÃ©ri": 2268,
  "ques": 1026,
  "gg": 446,
  "ĠupdateType": 3495,
  "Ġ280": 3722,
  "Stack": 2245,
  "Ġ81": 2720,
  "ĠtransformNode": 3452,
  "ses": 541,
  "Ġtensor": 2270,
  "Ġdevelopment": 2056,
  "ĠfindType": 3016,
  "ĠconvertList": 3563,
  "Ġdescente": 1324,
  "aine": 2065,
  "Ġmigration": 1185,
  "ement": 876,
  "cul": 1913,
  "Ġ440": 4083,
  "330": 2852,
  "Ġ201": 1166,
  "352": 2918,
  "007": 3440,
  "Ġ247": 3438,
  "Ġ1535": 4307,
  "693": 3373,
  "Ġrecommande": 1718,
  "ational": 2075,
  "Ġdominant": 1325,
  "Ġlearning": 510,
  "Ġsequential": 1897,
  "ĠprocessSample": 3796,
  "ĠgetBatch": 2993,
  "pport": 1999,
  "760": 4268,
  "ĠisVersion": 2844,
  "ĠSun": 2444,
  "50": 715,
  "current": 1255,
  "Ġexhibit": 1302,
  "edi": 2382,
  "ĠF": 388,
  "orte": 2148,
  "dim": 303,
  "tio": 908,
  "ĠcomputeBlock": 3466,
  "Ġ812": 4055,
  "Ġ892": 3740,
  "361": 4198,
  "Ġ^": 2411,
  "ĠbuildList": 3543,
  "ĠnÃ©": 891,
  "qu": 154,
  "613": 3672,
  "Ġregression": 2236,
  "Ġnormalisation": 901,
  "68": 2718,
  "2562": 4223,
  "ĠdÃ©chi": 2191,
  "fo": 1128,
  "Ġ1047": 3474,
  "ĠupdateQueue": 3797,
  "726": 3413,
  "ĠcomputeType": 2860,
  "Ġlightweight": 2054,
  "714": 3978,
  "Ġ517": 4067,
  "00": 263,
  "Ġaut": 285,
  "Ġ49": 2696,
  "Ġdeletion": 2091,
  "220": 3387,
  "782": 2883,
  "Ġarchitect": 1045,
  "095": 3785,
  "Ġrouting": 529,
  "id": 376,
  "Ġthirty": 2246,
  "954": 3704,
  "319": 3390,
  "ige": 2011,
  "ĠconvertKind": 3564,
  "Ġ205": 4030,
  "583": 3594,
  "Ġ1947": 4333,
  "raction": 1018,
  "down": 2548,
  "Ġtext": 1775,
  "entiment": 838,
  "iles": 2033,
  "ĠdÃ©ploiement": 1809,
  "150": 3627,
  "652": 3973,
  "erialization": 1167,
  "723": 3989,
  "Ġoctobre": 2517,
  "546": 3653,
  "659": 3200,
  "ĠhasStatus": 3557,
  "Ġstate": 1183,
  "ĠgenerateBlock": 3333,
  "ĠcanSet": 3584,
  "362": 4199,
  "5078": 4150,
  "831": 3999,
  "Ġversion": 2328,
  "856": 3689,
  "025": 3922,
  "084": 4301,
  "16": 408,
  "gular": 795,
  "1": 24,
  "Ġalerte": 2214,
  "Ġcontexte": 2352,
  "net": 1311,
  "ĠvalidateData": 3155,
  "ĠÂ": 1236,
  "43": 2559,
  "Ġ829": 3741,
  "59": 1912,
  "ĠcreateQueue": 2823,
  "ĠpÃ©ri": 2022,
  "ention": 332,
  "ingt": 1698,
  "Ġsignific": 796,
  "Ġsparse": 843,
  "new": 2553,
  "Ġlanguage": 573,
  "tun": 980,
  "model": 454,
  "fon": 1865,
  "g": 77,
  "ĠEpsilon": 2481,
  "Ġnoise": 1582,
  "Ġget": 1269,
  "ĠcanType": 3146,
  "536": 3654,
  "Ġsearch": 629,
  "mar": 1282,
  "Ġ30": 1492,
  "hort": 1529,
  "Ġ656": 4101,
  "ĠgenerateConfig": 3588,
  "Ġ287": 4027,
  "ory": 580,
  "ins": 1314,
  "Ġ3": 286,
  "Ġtransforme": 1357,
  "ĠgetType": 3271,
  "Ġ99": 2661,
  "ĠdeleteBlock": 3324,
  "entum": 1316,
  "74": 2809,
  "447": 3645,
  "174": 3297,
  "253": 3119,
  "043": 3040,
  "checkpo": 1194,
  "973": 3901,
  "Ġclust": 1125,
  "ran": 187,
  "List": 1312,
  "719": 3981,
  "Ġdec": 321,
  "alisÃ©e": 2251,
  "ger": 928,
  "Ġ331": 4042,
  "tat": 521,
  "Ġhum": 418,
  "328": 3632,
  "Ġrecommand": 856,
  "30": 736,
  "Ġdisciplin": 1367,
  "Ġinterpretation": 1941,
  "ffici": 1281,
  "section": 1106,
  "ĠupdateData": 3799,
  "Ġe": 157,
  "ad": 431,
  "ĠTuple": 2577,
  "07": 2675,
  "}": 99,
  "perts": 826,
  "ative": 523,
  "_": 69,
  "dow": 2547,
  "647": 3667,
  "<bos>": 1,
  "edul": 2569,
  "950": 4002,
  "378": 3012,
  "590": 3871,
  "ality": 2026,
  "ĠWednesday": 2512,
  "ll": 212,
  "antique": 788,
  "059": 3376,
  "ĠfenÃª": 2031,
  "ĠvalidateLayer": 3590,
  "Ġ4935": 3907,
  "lin": 1339,
  "pr": 1916,
  "Ġintelligence": 1365,
  "9258": 4183,
  "bal": 780,
  "orch": 416,
  "Ġdecoder": 2163,
  "Ġpho": 1693,
  "based": 1728,
  "ĠĠ": 138,
  "and": 499,
  "edge": 1210,
  "izer": 594,
  "Ġ2020": 2669,
  "9232": 4184,
  "ctorielles": 1394,
  "Ġcommut": 1923,
  "Ġlayers": 1847,
  "ĠhasQueue": 3842,
  "Ġ535": 4066,
  "Ġdis": 666,
  "Ġ>=": 2492,
  "Ġres": 575,
  "Ġbibli": 2127,
  "3043": 4156,
  "Ġ624": 4097,
  "org": 1238,
  "Ġsequences": 1787,
  "Ġinfer": 688,
  "layer": 1076,
  "Ġcheckpo": 643,
  "349": 3045,
  "264": 2910,
  "X": 63,
  "Ġnatural": 1753,
  "Ġo": 186,
  "38": 1074,
  "Ġajo": 1545,
  "l": 82,
  "561": 3308,
  "Ġnode": 2534,
  "679": 4316,
  "Ġkey": 2005,
  "Ġ200": 679,
  "op": 544,
  "ĠsetStatus": 3006,
  "32": 2202,
  "requÃªte": 1621,
  "535": 3655,
  "Ġ28": 2795,
  "Ġvirt": 1513,
  "Ġdevelop": 2029,
  "ering": 553,
  "Ġloop": 2363,
  "256": 3283,
  "Ġprogramme": 2262,
  "Ġeval": 2635,
  "Ġrequires": 2125,
  "767": 3350,
  "Ġremoves": 1860,
  "ĠfindTensor": 3568,
  "ĠA": 453,
  "Ġ919": 3475,
  "732": 3683,
  "Ġ.": 449,
  "Ġac": 233,
  "Ġhuman": 615,
  "ante": 889,
  "98": 2666,
  "load": 1921,
  "&": 13,
  "51": 2585,
  "ĠdonnÃ©es": 618,
  "ta": 517,
  "ign": 1922,
  "ĠgenerateBatch": 2840,
  "tiqu": 2110,
  "ĠcanNode": 4250,
  "Ġu": 185,
  "ĠmakeBatch": 3275,
  "Ġconnex": 1351,
  "Ġembeddings": 1393,
  "ĠfindState": 3321,
  "ĠbuildMap": 3286,
  "Ġ447": 4082,
  "964": 4288,
  "ĠmakeQueue": 2998,
  "597": 3028,
  "Ġemotions": 1552,
  "mo": 338,
  "ĠphotorÃ©alistes": 1731,
  "885": 4265,
  "False": 2685,
  "Ġ848": 4048,
  "tÃª": 1872,
  "269": 3102,
  "ĠupdateUser": 3245,
  "Ġj": 383,
  "Ġal": 389,
  "Ġnum": 2597,
  "468": 2985,
  "893": 3359,
  "ĠupdateBatch": 3493,
  "Ġ566": 3460,
  "053": 3624,
  "Ġ1992": 2749,
  "vision": 2208,
  "ech": 2066,
  "Ġass": 524,
  "Ġ202": 395,
  "Ġrequ": 633,
  "209": 3382,
  "ind": 638,
  "by": 1110,
  "ĠdonnÃ©": 617,
  "le": 152,
  "ner": 1946,
  "Ġ50": 1626,
  "Ġcourts": 1563,
  "tion": 123,
  "33": 2536,
  "urts": 1553,
  "ĠcanState": 3147,
  "Ġdominante": 1326,
  "Ġren": 1501,
  "Ġcondition": 691,
  "dio": 2077,
  "798": 3420,
  "Ġ3958": 4305,
  "ff": 358,
  "ĠSatur": 2446,
  "Ġ576": 4070,
  "ression": 588,
  "96": 2565,
  "721": 3677,
  "Ġprocess": 879,
  "ĠcomputeStack": 3081,
  "checkpoint": 1195,
  "Ġ888": 4053,
  "Ġprofon": 1883,
  "Ġfiltering": 2048,
  "Ġcheckpointing": 1004,
  "Ġtraite": 1777,
  "ĠmakeKind": 2999,
  "ture": 536,
  "tes": 423,
  "Ġlogits": 391,
  "ĠcomputeUser": 2859,
  "out": 2388,
  "564": 4235,
  "Ġsuper": 2678,
  "ª": 106,
  "Ġpairs": 1832,
  "129": 3936,
  "Ġ44": 2817,
  "ĠcanInfo": 3332,
  "431": 3649,
  "matically": 1676,
  "Ġ470": 3757,
  "Ġprimary": 2273,
  "form": 229,
  "ĠFren": 2086,
  "422": 3395,
  "214": 3383,
  "ld": 2611,
  "Ġacc": 330,
  "ights": 1389,
  "Ġnature": 1752,
  "balancing": 794,
  "gi": 1988,
  "Ġ638": 4096,
  "Ġm": 139,
  "ĠcreateLayer": 3512,
  "atch": 315,
  "ĠgetKind": 3110,
  "938": 3064,
  "[": 65,
  "Ġquatre": 2157,
  "square": 2628,
  "he": 211,
  "gues": 958,
  "842": 3695,
  "Ġcommutateur": 1939,
  "631": 3409,
  "Ġclas": 341,
  "Ġdescent": 1323,
  "ĠbuildStack": 3545,
  "248": 3386,
  "ĠupdateLayer": 4170,
  "dia": 1556,
  "uting": 528,
  "inting": 1001,
  "Ġencryption": 1613,
  "993": 4111,
  "cu": 2590,
  "ĠdÃ©bogage": 1643,
  "922": 3506,
  "A": 40,
  "ĠmÃ©tri": 1661,
  "Ġenc": 260,
  "Ġdependenc": 1068,
  "484": 3250,
  "520": 3050,
  "ĠgetLayer": 2872,
  "Ġcreate": 1226,
  "46": 1259,
  "onfig": 719,
  "Ġinterpre": 1928,
  "ĠbuildTensor": 3120,
  "64": 2813,
  "Ġmod": 193,
  "ĠhasVersion": 3133,
  "070": 3927,
  "643": 3204,
  "ĠAugu": 2473,
  "vol": 1741,
  "7581": 4342,
  "Mod": 1609,
  "Ġquery": 2211,
  "562": 3847,
  "alisation": 436,
  "ĠprocessVersion": 3488,
  "ĠgenerateSample": 2929,
  "Ġlangage": 806,
  "245": 3256,
  "Ġlogi": 1994,
  "Ġ235": 3437,
  "513": 3659,
  "Ġboucle": 2294,
  "ul": 250,
  "89": 2537,
  "ĠisData": 4057,
  "217": 3792,
  "para": 654,
  "032": 3623,
  "Ġ220": 4022,
  "ĠhiÃ©ra": 870,
  "resolution": 1702,
  "Ġgrande": 1295,
  "239": 3630,
  "Ġ2003": 2736,
  "esidual": 1343,
  "Ġche": 639,
  "Ġ:": 1062,
  "448": 3187,
  "699": 3963,
  "620": 3054,
  "Ġ63": 2776,
  "Ġ977": 3782,
  "ĠmatÃ©rialisÃ©e": 2258,
  "ĠModel": 1420,
  "16384": 2643,
  "ions": 1361,
  "Ġ31": 2796,
  "uly": 2450,
  "621": 3197,
  "er": 119,
  "ente": 1313,
  "les": 282,
  "Ġ}": 2415,
  "134": 4263,
  "Ã©nalise": 1539,
  "ction": 173,
  "ust": 1124,
  "157": 4162,
  "Ġrot": 949,
  "Ġ2026": 1449,
  "Batch": 1970,
  "ĠshouldList": 3522,
  "290": 3273,
  "Ġbases": 1387,
  "Ġconst": 673,
  "silu": 2620,
  "ĠconvertNode": 4239,
  "tal": 1257,
  "ite": 733,
  "Ġ454": 3464,
  "Ġhyper": 755,
  "Ġ!": 1235,
  "ĠgetTree": 3820,
  "ĠcreateEdge": 3514,
  "Ġrec": 1081,
  "'])['": 2623,
  "ĠcanStatus": 2927,
  "ec": 1016,
  "439": 3643,
  "gage": 802,
  "od": 146,
  "pre": 1000,
  "414": 2355,
  "Ġand": 1853,
  "ĠL": 151,
  "Ġrivalise": 1829,
  "ĠMixture": 1927,
  "720": 3679,
  "Ġcompilation": 1051,
  "ĠhasKind": 3556,
  "407": 3300,
  "par": 329,
  "Ġcollap": 1416,
  "ĠtransformStack": 3450,
  "Graph": 2132,
  "ĠFusedSw": 2653,
  "Ġnormalization": 1616,
  "915": 3216,
  "ĠprocÃ©": 2289,
  "Ġ43": 2780,
  "ĠisLayer": 3747,
  "Ġ6378": 3768,
  "Ġ67": 2697,
  "cur": 468,
  "Ġfirewall": 2051,
  "radient": 353,
  "Ġworld": 2616,
  "Ġsch": 2568,
  "0949": 4144,
  "111": 3033,
  "pression": 1403,
  "Ġjuil": 2461,
  "Ġgreed": 1133,
  "ĠupdateToken": 3498,
  "ĠEta": 2480,
  "874": 4292,
  "Ġv": 249,
  "Ġlock": 1491,
  "164": 3462,
  "Ġrotatif": 1801,
  "Ġ388": 4039,
  "983": 3371,
  "5740": 4166,
  "Linear": 2686,
  "gÃ¨re": 2297,
  "006": 3727,
  "orm": 179,
  "unction": 1200,
  "Ġrecognition": 2093,
  "zation": 1742,
  "112": 3883,
  "625": 3668,
  "493": 4211,
  "ĠsÃ©lectionne": 1576,
  "ĠmÃ©moire": 585,
  "Ġdatab": 831,
  "tive": 1972,
  "Ġreturn": 2309,
  "582": 3159,
  "no": 2612,
  "661": 3884,
  "ĠupdateVersion": 4171,
  "ed": 183,
  "Ġinser": 1054,
  "39": 1254,
  "Ġinsertion": 1059,
  "849": 2954,
  "ĠfindStack": 3140,
  "nesday": 2387,
  "ask": 892,
  "ĠbuildSet": 4226,
  "jection": 946,
  "Ġ+=": 2170,
  "Ã©ment": 1951,
  "Ġ932": 4137,
  "Ġtranslation": 1823,
  "ĠconvertConfig": 3314,
  "76": 2141,
  "Ġtopk": 1359,
  "909": 3698,
  "26": 1256,
  "ĠsÃ©cur": 1511,
  "Ġexamples": 2135,
  "370": 3134,
  "63": 2824,
  "ĠFriday": 2467,
  "functional": 2582,
  "y": 95,
  "ĠgetUser": 2871,
  "tran": 2285,
  "Ġ488": 3755,
  "663": 3885,
  "Ġsemaphore": 2000,
  "455": 3607,
  "752": 3417,
  "Ġagg": 994,
  "ations": 982,
  "Ġset": 1306,
  "Ġ95": 2705,
  "Ġneurones": 1901,
  "ĠdeleteNode": 3329,
  "Ġ20": 224,
  "Ġ2013": 2737,
  "146": 3788,
  "965": 3170,
  "Ġ210": 3439,
  "383": 3806,
  "apho": 950,
  "356": 3828,
  "54": 2140,
  "Ġdesc": 745,
  "<eos>": 2,
  "Ġiter": 2541,
  "ial": 438,
  "ĠconvertModel": 3312,
  "ĠSpecialized": 1670,
  "Ġremo": 1843,
  "aces": 2007,
  "813": 3690,
  "Ġauthentication": 1484,
  "nal": 2371,
  "ĠLayer": 965,
  "ences": 595,
  "Ġ68": 2756,
  "ĠhasSet": 4231,
  "'])": 1248,
  "415": 3391,
  "454": 3048,
  "Ġregular": 1409,
  "py": 1689,
  "354": 3538,
  "Ġ676": 3766,
  "Ġsor": 2147,
  "Ġdtype": 2595,
  "Ã": 112,
  "242": 3510,
  "467": 3104,
  "Ġreduction": 2235,
  "391": 3515,
  "ants": 1506,
  "Ġcapture": 1889,
  "ge": 162,
  "41": 2544,
  "Ġis": 366,
  "full": 2564,
  "ni": 299,
  "ĠdeleteMap": 3326,
  "Ġfine": 984,
  "ous": 2106,
  "Ġmas": 2336,
  "769": 3876,
  "Ġpro": 197,
  "ĠrÃ©sultats": 1733,
  "ĠgetEdge": 2915,
  "Ġquality": 1423,
  "bra": 2182,
  "Ġ`": 2412,
  "ĠbuildKind": 2827,
  "ires": 886,
  "Ġpre": 365,
  "Ġlun": 2424,
  "Ġ289": 3721,
  "2452": 4190,
  "ĠfindBlock": 3316,
  "arial": 2206,
  "Ġtimes": 1136,
  "93": 2814,
  "523": 3889,
  "orisation": 2112,
  "Ġ(": 1275,
  "934": 3433,
  "ĠCondition": 1772,
  "Ġ15": 2691,
  "ĠconvertBatch": 2838,
  "768": 2935,
  "820": 3688,
  "ĠisBatch": 3746,
  "966": 3706,
  "ĠgetSample": 3269,
  "ĠcanData": 3331,
  "Ġclustering": 1127,
  "Ġcheckpoint": 1715,
  "Ġpers": 811,
  "Ġbits": 1112,
  "ĠBeta": 2417,
  "intelligence": 1373,
  "480": 2975,
  "ĠDict": 2580,
  "194": 3827,
  "341": 3163,
  "386": 2976,
  "cing": 781,
  "851": 3213,
  "Ġ70": 2746,
  "Ġde": 163,
  "Ġ828": 4047,
  "ĠConditional": 1812,
  "Status": 2173,
  "Ġ843": 3743,
  "206": 3509,
  "Ġlundi": 2514,
  "ency": 2367,
  "800": 3685,
  "05": 2769,
  "item": 2627,
  "ĠnÃ©cessaires": 1374,
  "amp": 237,
  "3631": 4204,
  "ĠAdam": 2162,
  "Ġme": 877,
  "ĠSaturday": 2520,
  "ĠNeural": 1828,
  "~": 100,
  "Ġ42": 2801,
  "z": 96,
  "ĠcomputeQueue": 2818,
  "Ġ2007": 2724,
  "432": 3396,
  "Ġperformances": 1664,
  "Ġ318": 4035,
  "Ġniveaux": 1455,
  "Ġ2005": 2702,
  "Ġsequ": 685,
  "Ãªte": 978,
  "ĠThe": 347,
  "Ġindex": 1145,
  "444": 2934,
  "ĠsÃ©rialisation": 1887,
  "738": 3678,
  "//": 333,
  "ĠSupervis": 2117,
  "Ġlearn": 426,
  "Ġ887": 3744,
  "Ġparamet": 844,
  "ĠSparse": 692,
  "ĠsetData": 3293,
  "ĠfindKind": 3015,
  "Ġfoot": 1935,
  "Ġsamedi": 2513,
  "639": 3965,
  "nition": 2085,
  "ĠhasInfo": 3009,
  "Ġmix": 2150,
  "396": 2909,
  "Ġ738": 4122,
  "ĠprocessToken": 3489,
  "wit": 2015,
  "925": 3253,
  "047": 3374,
  "068": 3892,
  "Ġvalid": 628,
  "ps": 322,
  "gressif": 1779,
  "ĠshouldVersion": 3817,
  "logits": 723,
  "Ġ6498": 4110,
  "55": 2562,
  "Ġdivision": 2209,
  "ĠsetKind": 4227,
  "$": 11,
  "Ġtron": 2319,
  "186": 4158,
  "on": 117,
  "ĠisQueue": 3228,
  "ĠsÃ©mantique": 793,
  "ĠtransformSample": 3449,
  "Ġincreasing": 1933,
  "500": 3049,
  "Ġatt": 302,
  "Ġrecommends": 1714,
  "Ġpersonaliz": 1480,
  "Ġ448": 4080,
  "Ġ434": 3756,
  "Ġselec": 1565,
  "ĠnÃ©cessite": 2128,
  "ĠcreateType": 3511,
  "Ġ729": 3773,
  "Ġ837": 4051,
  "cember": 2433,
  "079": 3905,
  "081": 4300,
  "183": 3238,
  "Ġmom": 1315,
  "Ġ2017": 2671,
  "Ġsous": 1615,
  "Ġpermet": 1010,
  "472": 4217,
  "ĠgetQueue": 2994,
  "ixture": 1003,
  "602": 3896,
  "pement": 2253,
  "Ġ816": 3738,
  "958": 3702,
  "Ġreconnaissance": 2102,
  "675": 3911,
  "ms": 857,
  "803": 3612,
  "672": 3372,
  "ot": 1915,
  "Ġ858": 4052,
  "Ġmonitor": 1082,
  "Ġpipeline": 1156,
  "ati": 256,
  "F": 45,
  "ĠsetTensor": 3835,
  "pk": 1499,
  "Ġw": 258,
  "torealis": 1706,
  "Ġ649": 3763,
  "968": 4290,
  "Ġsubquery": 1985,
  "311": 3637,
  "Ġdiscri": 1172,
  "Ġsynchronization": 2049,
  "ĠÃ©chantillonnage": 2180,
  "Ġconfig": 2348,
  "Ġ730": 3470,
  "onday": 2419,
  "onction": 2185,
  "ĠmakeModel": 3114,
  "1589": 4163,
  "ĠFebr": 2466,
  "Ġfootprint": 1942,
  "Ġgrouping": 1452,
  "antiation": 2192,
  "ctions": 1349,
  "uels": 1500,
  "ĠbuildBatch": 3285,
  "Ġ4839": 4312,
  "Ġpara": 318,
  "Ġ348": 4036,
  "rain": 280,
  "Ã©gers": 2019,
  "Ġconnexions": 1377,
  "Ġclassifi": 841,
  "Ġad": 538,
  "Ġ#": 2400,
  "cally": 1659,
  "Ġgaussien": 1586,
  "887": 3598,
  "101": 3342,
  "123": 3361,
  "ronment": 1977,
  "Ġtransaction": 1077,
  "ĠgenerateGraph": 4252,
  "1781": 4230,
  "ĠâĤ": 624,
  "fig": 554,
  "ĠtransformGraph": 3070,
  "¬": 107,
  "am": 195,
  "ĠprÃ©cision": 1099,
  "lock": 520,
  "017": 3621,
  "ynchron": 1086,
  "ĠtransformSet": 3454,
  "977": 4007,
  "Ġadvers": 1101,
  "Ġdecembre": 2439,
  "ĠcanTensor": 4248,
  "ducteurs": 1820,
  "Ġqu": 326,
  "Ġvendredi": 2521,
  "tex": 1103,
  "Ġcogni": 1041,
  "113": 3381,
  "up": 274,
  "ution": 378,
  "Tree": 2532,
  "gation": 1144,
  "ĠR": 225,
  "ĠinterprÃ©": 2040,
  "401": 3840,
  "ĠdeleteTree": 3576,
  "238": 3181,
  "257": 3385,
  "nement": 635,
  "ancing": 784,
  "cri": 1168,
  "Ġimage": 1713,
  "Ġlect": 1603,
  "idu": 906,
  "Ġ498": 4091,
  "Ġactif": 1711,
  "901": 3362,
  "tation": 1035,
  "0008": 4033,
  "Ġpost": 1759,
  "iter": 556,
  "843": 3696,
  "801": 3611,
  "Mo": 636,
  "Ġinterface": 1092,
  "Ġexperiences": 1472,
  "501": 2965,
  "volution": 634,
  "Map": 1986,
  "Ġinher": 1640,
  "ĠprocÃ©dure": 2298,
  "Ġ709": 4119,
  "teurs": 924,
  "Ġseptembre": 2522,
  "ĠgetVersion": 2820,
  "Ġ133": 4016,
  "Ġembedding": 659,
  "Ġcontext": 1674,
  "ĠreprÃ©sentations": 1894,
  "Ġstatus": 2368,
  "Ġ_": 2650,
  "ĠhasTensor": 2878,
  "898": 3888,
  "Ġmoderne": 1370,
  "nent": 1868,
  "fit": 1401,
  "ckpo": 441,
  "ill": 2345,
  "262": 3518,
  "Ġ60": 2717,
  "641": 3203,
  "ropout": 704,
  "Ġ960": 3476,
  "Ġ755": 4126,
  "272": 3011,
  "igh": 284,
  "me": 451,
  "Ġla": 216,
  "Ġ2014": 2710,
  "ĠshouldStatus": 2819,
  "we": 533,
  "739": 3206,
  "301": 3793,
  "ĠgetData": 3819,
  "Ġmig": 1179,
  "979": 3614,
  "471": 3004,
  "640": 3669,
  "Ġare": 1345,
  "Ġ809": 4045,
  "654": 3968,
  "gression": 1146,
  "ĠâĤ©": 2484,
  "ĠtempÃ©rature": 2527,
  "ĠTraining": 2237,
  "Ġ646": 4098,
  "533": 3878,
  "atus": 742,
  "nÃ©": 336,
  "Ġpip": 1151,
  "ĠinterprÃ©tation": 2061,
  "Ġ89": 2689,
  "227": 3942,
  "ĠbuildType": 3544,
  "ĠclÃ©": 1976,
  "cial": 865,
  "Ġjoin": 2229,
  "212": 3480,
  "Ġcl": 272,
  "385": 2866,
  "oad": 2592,
  "ĠmatÃ©ri": 1057,
  "aly": 479,
  "Ġattribut": 1724,
  "chical": 867,
  "ĠbuildSample": 2875,
  "ĠcanUser": 3578,
  "733": 3416,
  "cto": 1231,
  "ĠOptional": 2579,
  "esday": 1237,
  "Ġplat": 1467,
  "init": 2249,
  "Ġthrough": 918,
  "Token": 2353,
  "ĠbuildConfig": 3288,
  "Ġvalidate": 1605,
  "ĠmodÃ¨le": 605,
  "Ġassist": 828,
  "®": 108,
  "ĠshouldData": 3106,
  "Ġsurapprentissage": 1437,
  "ĠpÃ©riphÃ©ri": 2053,
  "duction": 379,
  "677": 3969,
  "hout": 866,
  "003": 2891,
  "x": 94,
  "408": 3301,
  "130": 3176,
  "Ġprocessing": 1792,
  "Ġconvol": 1755,
  "ĠAlpha": 2471,
  "Ġsam": 2422,
  "Ġmaterial": 2126,
  "Ġtim": 1129,
  "970": 3434,
  "Ġ790": 3778,
  "Ġ34": 2719,
  "Ġ377": 3444,
  "Ġunique": 1012,
  "ĠmakeType": 3533,
  "ĠGPU": 2161,
  "cteurs": 1815,
  "Ġsufficient": 1304,
  "Ġ04": 1216,
  "ĠautorÃ©": 1765,
  "742": 3987,
  "ĠgenerateList": 3586,
  "aires": 1337,
  "Ġdecod": 518,
  "530": 3194,
  "<unk>": 3,
  "216": 3178,
  "Ġ236": 3717,
  "Ġnucle": 1177,
  "Ġby": 713,
  "ĠhasList": 3302,
  "utif": 1740,
  "333": 4283,
  "959": 3431,
  "eurs": 1768,
  "165": 3752,
  "ĠDiffusion": 1726,
  "ĠshouldUser": 2870,
  "Ġ\"": 2399,
  "Ġdelivery": 1967,
  "202": 3809,
  "Ġ27514": 4315,
  "ĠcomputeModel": 4117,
  "ĠĠĠĠĠĠĠĠ": 463,
  "ĠaccÃ©lÃ¨rent": 1392,
  "596": 3347,
  "Gra": 2104,
  "vra": 1623,
  "Ġscale": 1296,
  "Ġmulti": 1876,
  "ures": 897,
  "ĠrÃ©seau": 2260,
  "ch": 142,
  "backward": 1899,
  "855": 3697,
  "Ġcalcul": 1937,
  "usedSw": 2652,
  "Ġge": 1266,
  "23": 2607,
  "ĠsetEdge": 4228,
  "Ġnetworks": 1896,
  "Ġdropout": 1405,
  "Ġper": 255,
  "153": 3485,
  "Ġ770": 4125,
  "Ġ83": 2753,
  "ti": 118,
  "Ġaggregation": 2244,
  "Ġbuil": 1289,
  "ĠDecember": 2499,
  "505": 2846,
  "ĠrÃ©volutionnÃ©": 1807,
  "Ġat": 590,
  "ab": 239,
  "22": 2181,
  "ĠtransformToken": 3071,
  "da": 2591,
  "pend": 514,
  "483": 3501,
  "('": 1249,
  "Ġencoding": 1766,
  "700": 3676,
  "878": 3997,
  "ĠvalidateInfo": 3341,
  "Ġunion": 1716,
  "Ġclasse": 1709,
  "Ġ->": 2672,
  "Ġ92": 2798,
  "610": 3670,
  "ho": 278,
  "):": 712,
  "460": 3263,
  "299": 3179,
  "Ġmon": 667,
  "ĠApril": 2472,
  "974": 3175,
  "Ġdisciplines": 1380,
  "ouple": 763,
  "vent": 558,
  "ĠtransformInfo": 3225,
  "Ġ2021": 2712,
  "20": 1191,
  "3852": 4180,
  "780": 3603,
  "Ġ150": 4012,
  "config": 1141,
  "Ġmodels": 830,
  "duit": 485,
  "Ġconver": 1444,
  "al": 137,
  "Ġdef": 1268,
  "Ġgraph": 2490,
  "042": 3932,
  "atur": 2431,
  "Ġ1994": 2750,
  "Ġtextes": 1568,
  "Ġ827": 3742,
  "37": 1336,
  "ĠÃ©chantillonn": 2169,
  "ĠshouldMap": 3264,
  "e": 75,
  "fique": 1348,
  "790": 3986,
  "Ġ6527": 4327,
  "omati": 1027,
  "maire": 2239,
  "Ġjuillet": 2523,
  "tics": 1052,
  "gh": 904,
  "Ġd": 126,
  "mes": 1460,
  "185": 2968,
  "087": 3378,
  "683": 3913,
  "205": 3810,
  "995": 3465,
  "Beta": 2379,
  "an": 140,
  "Ġth": 372,
  "02": 2783,
  "466": 3520,
  "558": 3196,
  "ĠisState": 3074,
  "440": 3191,
  "{": 97,
  "Ġrotat": 1846,
  "Ġrapide": 1863,
  "ĠJ": 810,
  "ĠRTX": 1113,
  "Ġnive": 1443,
  "Ġmute": 1104,
  "Ġattention": 370,
  "onaliz": 1465,
  "grÃ©": 1162,
  "24": 1222,
  "Ġ84": 2716,
  "Ġpersonnalisent": 1481,
  "015": 3917,
  "Ġver": 1648,
  "ĠResidual": 1353,
  "Ġet": 2027,
  "Ġisolation": 1964,
  "ĠdeleteModel": 3327,
  "809": 3686,
  "Ġ630": 4094,
  "Ġgamma": 2441,
  "empreinte": 1940,
  "ĠDelta": 2469,
  "Ġ38": 2728,
  "Ġ3037": 4243,
  "2944": 4210,
  "498": 2995,
  "510": 3658,
  "back": 885,
  "Ġconcurr": 1198,
  "Ġ24": 2771,
  "030": 3916,
  "Ġepsilon": 2436,
  "Ġconcurrency": 2370,
  "vocab": 2646,
  "Ġlab": 1252,
  "Ġoverfit": 1424,
  "692": 3964,
  "tt": 221,
  "cis": 696,
  "dimension": 551,
  "as": 169,
  "8": 31,
  "eta": 450,
  "Ġreduces": 613,
  "ata": 729,
  "Ġrole": 757,
  "comm": 394,
  "atural": 1750,
  "Ġdiffusion": 1720,
  "944": 3065,
  "529": 3195,
  "771": 3601,
  "Ã§ais": 2072,
  "Ġi": 526,
  "ar": 149,
  "lum": 2012,
  "953": 4009,
  "740": 3207,
  "raÃ®": 676,
  "attention": 1877,
  "516": 3954,
  "ent": 144,
  "Ġchiffrement": 1606,
  "erence": 1624,
  "646": 3966,
  "913": 3703,
  "13": 1911,
  "266": 3262,
  "iGLU": 2654,
  "Ã©rer": 2240,
  "Ġhi": 458,
  "rewall": 2020,
  "ĠprocessUser": 3242,
  "Ġ787": 4127,
  "Ġstag": 952,
  "realis": 1692,
  "tier": 822,
  "Ġprocedure": 1445,
  "Ġgaussi": 842,
  "Ġmem": 581,
  "ĠhÃ©r": 2310,
  "Ġfiltrage": 2261,
  "Ġaggregate": 1590,
  "Ġepisodi": 1442,
  "Ġgate": 1274,
  "Ã©e": 686,
  "581": 3868,
  "773": 3602,
  "quables": 1299,
  "Ġ949": 4134,
  "ĠdÃ©clen": 2292,
  "Ġsupervised": 2242,
  "271": 3305,
  "491": 3531,
  "284": 3500,
  "Ġpolymorphisme": 1672,
  "273": 3306,
  "Ãª": 511,
  "yers": 1838,
  "ĠbuildGraph": 4224,
  "dure": 974,
  "__(": 2601,
  "Ġ'": 2404,
  "ĠshouldToken": 3108,
  "650": 3052,
  "pte": 2389,
  "Ġ815": 4046,
  "288": 2865,
  "Ġremarquables": 1300,
  "Ġmoniteur": 1717,
  "elle": 740,
  "210": 2966,
  "Ġphot": 1694,
  "604": 3173,
  "176": 3007,
  "Ġtro": 817,
  "295": 4209,
  "ĠdÃ©clencheur": 2301,
  "path": 398,
  "mati": 1645,
  "cognet": 2638,
  "Ġparameter": 845,
  "Ġ295": 3906,
  "ĠconvertTensor": 3310,
  "arge": 760,
  "Ġnon": 693,
  "status": 1197,
  "atis": 1182,
  "Ġview": 2224,
  "698": 3974,
  "ĠprocessType": 2901,
  "Ġt": 130,
  "ĠisModel": 3073,
  "Ġhierar": 871,
  "712": 3684,
  "asses": 2599,
  "ĠLa": 218,
  "ĠshouldTensor": 3521,
  "317": 2854,
  "Ġ87": 2774,
  "cherche": 773,
  "Ġrenforcement": 1520,
  "Ġlogiciel": 2006,
  "Ġgaus": 837,
  "133": 3026,
  "Ġbias": 1271,
  "751": 3988,
  "br": 2381,
  "Ġdeux": 1554,
  "44": 1814,
  "it": 147,
  "690": 3202,
  "uary": 1234,
  "ĠcanQueue": 3858,
  "937": 4006,
  "ĠK": 2560,
  "norm": 1208,
  "524": 2857,
  "Ġappren": 1893,
  "ove": 1232,
  "Ġ346": 4038,
  "acc": 1122,
  "Ġ3089": 4245,
  "ficielle": 1368,
  "nb": 2656,
  "19": 1277,
  "Ġh": 166,
  "max": 1566,
  "Ġmat": 683,
  "ĠgenerateVersion": 3862,
  "Ġplus": 1841,
  "ĠhasState": 3132,
  "ĠZ": 1095,
  "Ġconvolutional": 1984,
  "Ġalgorith": 1013,
  "ure": 248,
  "ĠbuildInfo": 3546,
  "ate": 181,
  "Block": 1230,
  "teur": 460,
  "337": 3950,
  "Ġcapacity": 1930,
  "nel": 417,
  "Data": 2103,
  "ĠdÃ©sÃ©ri": 2272,
  "ĠmakeInfo": 3001,
  "Ġconfigu": 1756,
  "243": 4189,
  "Ġpositional": 1781,
  "184": 4157,
  "275": 3307,
  "211": 4151,
  "226": 2940,
  "ĠO": 814,
  "041": 3931,
  "Ġ3340": 4311,
  "ĠdeleteLayer": 3574,
  "Ġ88": 2711,
  "PU": 2143,
  "Ġtravail": 1450,
  "908": 4284,
  "Ġ<=": 2491,
  "83": 2792,
  "raint": 1562,
  "595": 3346,
  "61": 2803,
  "Ġlonger": 1780,
  "Ġque": 1839,
  "565": 3562,
  "355": 4214,
  "Ġ399": 3442,
  "Ġ35": 2793,
  "Ġratio": 914,
  "ay": 287,
  "ĠfindNode": 3017,
  "raining": 325,
  "857": 2842,
  "ĠcomputeSet": 2896,
  "cuda": 2605,
  "ute": 267,
  "ist": 422,
  "Ġperformance": 936,
  "Ġbeta": 2440,
  "84": 2830,
  "527": 3959,
  "ĠmakeStack": 3278,
  "ĠstockÃ©e": 1663,
  "Ġ06": 1193,
  "Ġlight": 2023,
  "ĠprocessStack": 3487,
  "128": 3934,
  "Ġmake": 1276,
  "071": 4303,
  "Ġ2016": 2727,
  "Ġtop": 355,
  "Ġswit": 2021,
  "ĠsynthÃ¨se": 1722,
  "3657": 4202,
  "251": 3541,
  "ĠCogNetMoE": 2644,
  "Ġ524": 4063,
  "rÃ©sentations": 1880,
  "ĠVe": 1386,
  "Ã¨": 228,
  "626": 3406,
  "til": 397,
  "Ġ636": 3762,
  "hidden": 2357,
  "Ġ57": 2806,
  "Ġ163": 3909,
  "ence": 214,
  "ĠcomputeTree": 4118,
  "Wed": 2380,
  "fu": 2563,
  "488": 3093,
  "ĠsÃ©quences": 1793,
  "Ġautomatique": 1032,
  "domain": 953,
  "ter": 310,
  "Ġ1995": 2658,
  "Ġsoft": 1043,
  "359": 4215,
  "Ġconvers": 2079,
  "li": 543,
  "495": 3532,
  "ĠrÃ©gression": 2223,
  "orld": 2613,
  "62": 2812,
  "Hel": 2610,
  "Ġthroughput": 1669,
  "763": 2828,
  "Ġ924": 3233,
  "ĠLarge": 1285,
  "Ġ19": 2764,
  "038": 3920,
  "un": 271,
  "b": 72,
  "ĠdÃ©chiffrement": 2200,
  "999": 4113,
  "gni": 1034,
  "ĠupdateStatus": 2972,
  "057": 3918,
  "207": 2867,
  "08": 2674,
  "Ġlongues": 959,
  "Ġrequired": 1366,
  "Ġarchi": 1038,
  "Ġ\\": 2410,
  "Ve": 1382,
  "667": 4281,
  "ĠsÃ©m": 563,
  "edback": 1509,
  "Ġ277": 3720,
  "Ġ2028": 2744,
  "Ġgroupement": 1581,
  "ĠcomputeStatus": 2962,
  "53": 2361,
  "cedure": 1441,
  "velop": 1123,
  "Ġqualification": 960,
  "put": 411,
  "Ġrange": 1649,
  "ĠVector": 1397,
  "ĠfindMap": 3318,
  "734": 3985,
  "ĠvalidateSet": 3592,
  "ĠOn": 2043,
  "Ġ140": 3435,
  "['": 991,
  "Ġextrapolates": 1800,
  "radi": 351,
  "Ġgroup": 819,
  "ssage": 898,
  "([": 2629,
  "ĠOctober": 2529,
  "Ġri": 947,
  "eled": 2113,
  "Ġ308": 4242,
  "iew": 2221,
  "Ã©tat": 2146,
  "Ġadversarial": 2213,
  "og": 428,
  "Ġke": 1989,
  "\"": 9,
  "ĠdeleteData": 3020,
  "ebr": 2383,
  "Ġdimensionality": 2050,
  "tim": 244,
  "Ġ177": 4014,
  "ĠÃ©vite": 1434,
  "8795": 4293,
  "Ġx": 2304,
  "optimiseur": 2168,
  "work": 656,
  "ĠprocessState": 3244,
  "supervisÃ©": 738,
  "382": 3503,
  "ight": 386,
  "Ġbord": 1991,
  "Ġ59": 2743,
  "Ġcontrain": 1882,
  "wall": 2016,
  "Ġscaling": 1790,
  "ĠdÃ©veloppement": 2264,
  "ĠArtificial": 1379,
  "ĠgenerateStack": 3334,
  "Ġsemi": 1219,
  "Ġvocal": 2080,
  "User": 1398,
  "Ġneural": 861,
  "ĠSupervised": 2136,
  "Ġrecette": 1953,
  "155": 4160,
  "Ġ648": 3076,
  "Ġ537": 4068,
  "gener": 2552,
  "Ġpri": 707,
  "Ġpour": 399,
  "Ġexception": 933,
  "compression": 1411,
  "ĠcanKind": 3579,
  "Ġlon": 495,
  "ĠsetUser": 2837,
  "que": 204,
  "Ġcaptures": 1890,
  "Ġnoisy": 1583,
  "808": 3895,
  "fici": 741,
  "Ġanalytics": 1786,
  "806": 3998,
  "Ġ4200": 4338,
  "Ġtransformeurs": 1769,
  "ffic": 2008,
  "ery": 1087,
  "Ġaux": 504,
  "Ġsu": 562,
  "177": 3298,
  "Ġsurveill": 2351,
  "che": 435,
  "experts": 827,
  "te": 134,
  "ĠupdateBlock": 3089,
  "chunk": 2665,
  "274": 4232,
  "105": 3866,
  "head": 1885,
  "ĠhasModel": 3131,
  "72": 2789,
  "Ġ07": 1199,
  "cessite": 2120,
  "557": 3651,
  "Ġconditionnelle": 1788,
  "ĠupdateModel": 3246,
  "Ġaccelerate": 937,
  "Ġ9033": 4331,
  "Ġatteint": 2089,
  "drement": 1399,
  "viter": 1537,
  "858": 3995,
  "666": 4280,
  "supervised": 703,
  "ces": 232,
  "ĠprocessTensor": 2900,
  "fill": 754,
  "098": 4142,
  "ĠgetGraph": 3270,
  "ĠspÃ©": 1653,
  "827": 3424,
  "Ġdecryption": 2225,
  "ng": 264,
  "99": 437,
  "069": 3365,
  "Ġ02": 1170,
  "Ĥ": 115,
  "sum": 1622,
  "Ġ2011": 2763,
  "Layer": 2247,
  "684": 3038,
  "§ais": 2071,
  "H": 47,
  "Ġon": 362,
  "renti": 896,
  "Ġarchitecture": 1046,
  "ĠÃ©tran": 2291,
  "Ġexploits": 1795,
  "10": 1631,
  "Ġnn": 2337,
  "143": 2831,
  "Ġbi": 805,
  "ĠrÃ©volution": 1758,
  "Ġrotate": 1859,
  "ĠTransform": 1760,
  "bu": 2219,
  "Ġ2030": 1510,
  "Ġ5860": 4337,
  "796": 3419,
  "Ġprofiling": 2293,
  "358": 2874,
  "idden": 1147,
  "972": 4296,
  "grad": 589,
  "Ġedge": 2373,
  "125": 3629,
  "ĠupdateInfo": 2973,
  "ĠprocessKind": 4169,
  "064": 3034,
  "Ġexper": 311,
  "921": 4003,
  "anche": 2428,
  "unt": 1415,
  "ĠisGraph": 2894,
  "entations": 983,
  "xy": 1017,
  "411": 3647,
  "Ġmet": 576,
  "Ġinstanciation": 1573,
  "ĠvalidateModel": 2933,
  "ĠfindEdge": 3323,
  "Ġmethod": 862,
  "'": 14,
  "01": 2751,
  "433": 3397,
  "Ġfore": 1920,
  "Ġenvironment": 1981,
  "?": 38,
  "Ġfor": 308,
  "Ġparmi": 1564,
  "gressi": 492,
  "parse": 420,
  "Ġ6940": 4318,
  "Ġ958": 4136,
  "Ġ548": 4062,
  "ĠupdateNode": 3247,
  "ursday": 2437,
  "ĠbuildEdge": 3290,
  "181": 3237,
  "87": 2609,
  "Ġcomposition": 1175,
  "835": 3210,
  "().__": 2684,
  "Ã¨rent": 1388,
  "Ġconvolution": 1975,
  "933": 3707,
  "ases": 568,
  "Version": 2340,
  "ĠisolÃ©ment": 1965,
  "iore": 1497,
  "413": 3193,
  "Ġ91": 2786,
  "Ġmemory": 586,
  "35": 1278,
  "Ġserialization": 2073,
  "ĠcapacitÃ©s": 1297,
  "Ġ22": 2765,
  "Ġthree": 1448,
  "Ġremar": 1288,
  "373": 3846,
  "Ġtokens": 727,
  "Ġrapid": 1854,
  "ore": 403,
  "Ġ;": 2407,
  "864": 3174,
  "ĠgetToken": 3272,
  "ry": 674,
  "ĠisTensor": 3227,
  "Ġ1836": 4325,
  "ĠvalidateTree": 4257,
  "alistes": 1705,
  "ĠfindQueue": 3848,
  "itage": 2308,
  "lat": 597,
  "ĠT": 247,
  "Ġapplies": 1617,
  "chron": 542,
  "310": 3636,
  "Ġtexte": 1776,
  "ĠÃ©pisodi": 1447,
  "Ġ821": 3455,
  "ĠisTree": 3459,
  "Ġsubqu": 1979,
  "-": 20,
  "ĠÃ©trangÃ¨re": 2300,
  "ĠtransformUser": 3734,
  "Ġauthorization": 2042,
  "ĠsÃ©maphore": 1627,
  "584": 3595,
  "Ġboost": 1673,
  "Ġco": 281,
  "729": 3980,
  "½": 110,
  "h": 78,
  "258": 4222,
  "931": 4010,
  "Ġintersection": 1107,
  "cette": 1952,
  "Ġtunnel": 1137,
  "632": 2887,
  "orcement": 505,
  "ĠrÃ©duit": 614,
  "Ġ325": 3729,
  "Ġprevent": 559,
  "Ġactives": 1852,
  "757": 3205,
  "mut": 1914,
  "guage": 572,
  "Ġdom": 743,
  "ĠmÃ©trique": 1681,
  "144": 3787,
  "pÃ©ri": 1461,
  "ĠFrench": 2101,
  "roves": 1507,
  "ĠdÃ©plo": 1762,
  "Ġgra": 800,
  "Ġ2004": 2767,
  "io": 2385,
  "Ġexhi": 1290,
  "15": 778,
  "Ġrotates": 1861,
  "Ġapp": 602,
  "tuning": 988,
  "cation": 927,
  "Ġ51": 2811,
  "Ġprojection": 948,
  "Ġ824": 4049,
  "5347": 3879,
  "685": 4322,
  "ĠgenerateToken": 3023,
  "ĠshouldBatch": 3523,
  "mary": 2267,
  "Ġprecision": 2159,
  "093": 2963,
  "923": 4182,
  "151": 3484,
  "S": 58,
  "357": 2943,
  "57": 846,
  "infÃ©rence": 989,
  "Ġunsupervised": 1980,
  "eff": 1400,
  "ĠcreateList": 3258,
  "L": 51,
  "gra": 293,
  "ĠfindData": 3320,
  "141": 2964,
  "951": 3221,
  "Ġcomposer": 1332,
  "are": 564,
  "802": 3894,
  "503": 3479,
  "Ġ293": 4308,
  "Ġ520": 3749,
  "esting": 1637,
  "Ġ32": 2778,
  "575": 3241,
  "ĠvalidateConfig": 3340,
  "Ġsuffici": 1294,
  "ux": 1536,
  "Ġdebugging": 2231,
  "Ġ4520": 4298,
  "ĠisInfo": 3458,
  "Ġmaterialized": 2138,
  "resentations": 1884,
  "Ġmax": 1360,
  "Ġparity": 2084,
  "ĠhasTree": 3010,
  "3919": 4192,
  "ĠSpar": 966,
  "ĠcanLayer": 3860,
  "MoEBlock": 2550,
  "nalise": 1533,
  "hi": 570,
  "prÃ©": 2014,
  "Ġmajor": 1824,
  "Ġtraitement": 1813,
  "ĠmakeSet": 3536,
  "Ġnatively": 2176,
  "Ġjanvi": 2463,
  "sance": 2069,
  "ids": 1214,
  "250": 3384,
  "Ġprofonds": 1909,
  "Ġsmall": 1407,
  "Ġbase": 1879,
  "q": 87,
  "579": 3794,
  "Ġengine": 1189,
  "ficial": 1352,
  "bedding": 1943,
  "228": 3180,
  "Ġgreedy": 1138,
  "Ġ2015": 2773,
  "ĠtransformQueue": 3735,
  "152": 4159,
  "Ġ5195": 4074,
  "292": 2885,
  "ĠÃ©ch": 850,
  "anisms": 1748,
  "ers": 501,
  "ĠdeleteSet": 3856,
  "ĠgenerateData": 3150,
  "ognition": 2088,
  "ĠTh": 1243,
  "Ġconstraint": 1578,
  "token": 577,
  "mbre": 813,
  "orÃ©": 921,
  "gine": 1188,
  "ĠvalidateVersion": 3157,
  "Ġro": 202,
  "ron": 392,
  "oisy": 1569,
  "expÃ©ri": 1469,
  "145": 3477,
  "Ġcontrainte": 1908,
  "Ġ__": 2593,
  "Ġ386": 3733,
  "982": 4297,
  "Net": 748,
  "Ġself": 535,
  "Ġ45": 2670,
  "Ġpare": 1886,
  "Ġex": 199,
  "sition": 387,
  "Ġalpha": 2468,
  "403": 3125,
  "49": 1273,
  "print": 1936,
  "ĠconvertQueue": 4237,
  "Ġpolymorphism": 2259,
  "Ġencapsul": 1091,
  "31": 2549,
  "4699": 4196,
  "Ġ635": 3764,
  "404": 3554,
  "Ġlayer": 2535,
  "338": 3043,
  "ĠparamÃ¨tre": 1734,
  "vi": 421,
  "ĠconvertToken": 4241,
  "276": 4233,
  "Ġbe": 461,
  "Ġsig": 783,
  "Ġrapport": 2001,
  "ip": 1150,
  "Ġ53": 2775,
  "Ġ297": 4028,
  "ĠRo": 407,
  "ĠmÃ©th": 1633,
  "Ġmonitoring": 2129,
  "Ġfois": 2154,
  "Ġvue": 2321,
  "669": 3886,
  "Ġ27": 2703,
  "142": 4146,
  "Ġnati": 2152,
  "4": 27,
  "ĠisSample": 2843,
  "5404": 3962,
  "in": 121,
  "Ġ-": 1464,
  "ĠCogNet": 751,
  "ĠprocessConfig": 2970,
  "ĠbuildData": 2919,
  "isms": 1746,
  "batch": 545,
  "()": 300,
  "ode": 443,
  "Ġdop": 1652,
  "fer": 452,
  "Ġ]": 1305,
  "66": 2531,
  "ĠfenÃªtre": 2058,
  "vice": 2041,
  "ĠdÃ©pendances": 1900,
  "Ġsynthesis": 1721,
  "270": 3304,
  "665": 4279,
  "indi": 1502,
  "ĠdÃ©pendance": 1725,
  "Ġ41": 2797,
  "381": 3094,
  "quab": 1286,
  "eue": 1998,
  "522": 3660,
  "371": 2925,
  "Ġ2022": 2759,
  "Ġ74": 2761,
  "cre": 705,
  "transform": 1036,
  "Ġ18": 2725,
  "ĠP": 470,
  "Ġnative": 2153,
  "Ġhumains": 1834,
  "97": 2631,
  "ĠsetToken": 3123,
  "Ġhardware": 917,
  "451": 3164,
  "entraÃ®": 677,
  "240": 3255,
  "063": 4286,
  "046": 3921,
  "008": 3224,
  "Ġ11": 1040,
  "34537": 4341,
  "ection": 477,
  "yper": 752,
  "Ġ616": 4093,
  "fore": 848,
  "ra": 127,
  "ĠisToken": 4059,
  "088": 3924,
  "Ġp": 129,
  "804": 3036,
  "lu": 2618,
  "Ġ===": 2505,
  "transformer": 1044,
  "Ġinter": 382,
  "ĠMay": 2455,
  "132": 3345,
  "302": 3481,
  "uil": 957,
  "Ġ757": 4121,
  "uesday": 2396,
  "Ġgener": 503,
  "bfloat": 2588,
  "Ġdeserialization": 2350,
  "ĠbuildVersion": 4225,
  "Ġ188": 3714,
  "Ġ178": 3715,
  "Ġ,": 2406,
  "ĠprÃ©serve": 1767,
  "example": 360,
  "ob": 1069,
  "637": 3407,
  "ward": 1263,
  "©": 105,
  "ĠTransformers": 1808,
  ",": 19,
  "Ġ2018": 2701,
  "4838": 4174,
  "Ġpersonalize": 1490,
  "ĠtransformBlock": 2957,
  "175": 3553,
  "Sta": 2233,
  "ĠtransformKind": 3069,
  "Ġ899": 3739,
  "981": 3370,
  "ix": 527,
  "autocast": 2603,
  "pt": 2633,
  "Ġest": 672,
  "Ġ514": 3748,
  "ce": 155,
  "forms": 1470,
  "Ġquantization": 1798,
  "Ġsurapp": 1422,
  "Ġ2100": 2508,
  "Ġimport": 1187,
  "Ġ719": 3774,
  "Ġ496": 3758,
  "Ġ78": 2698,
  "Ġbuild": 1301,
  "ĠcomputeTensor": 4114,
  "828": 3687,
  "Ġjuin": 2462,
  "ste": 1462,
  "Ġeffic": 2028,
  "421": 3640,
  "Ġlr": 1251,
  "ĠshouldStack": 2989,
  "mask": 1610,
  "514": 2856,
  "il": 252,
  "88": 1969,
  "roup": 818,
  "#": 10,
  "Ġ94": 2732,
  "ilation": 1050,
  "Ġextra": 932,
  "339": 3044,
  "ĠvalidateQueue": 3338,
  "zer": 2662,
  "Ġexperts": 475,
  "ral": 469,
  "Ġ72": 2785,
  "aus": 832,
  "data": 1201,
  "idual": 916,
  "Ġcapac": 579,
  "711": 3415,
  "=": 36,
  "Ġ66": 2673,
  "092": 3784,
  "Ġsup": 706,
  "Ġa": 131,
  "Ġproduces": 1700,
  "ĠgetSet": 3821,
  "ĠcreateModel": 2869,
  "ĠvalidateEdge": 3024,
  "au": 419,
  "ĠcanBlock": 3577,
  "ĠmakeState": 3115,
  "Ġforward": 2668,
  "Ġlectures": 1608,
  "ĠbuildNode": 2876,
  "412": 3648,
  "464": 3519,
  "724": 3680,
  "Ġoptimizer": 717,
  "Ġ229": 3718,
  "ĠconvertBlock": 3136,
  "ĠtransformLayer": 2958,
  "Ġextrapol": 1799,
  "du": 191,
  "Ġ433": 4089,
  "Ġ@": 1283,
  "420": 3188,
  "50786": 3790,
  "Ġ6794": 4314,
  "537": 3657,
  "ĠChinchilla": 919,
  "uter": 1227,
  "ulti": 985,
  "sor": 506,
  "bst": 1015,
  "com": 217,
  "148": 3478,
  "91": 3427,
  "plin": 1341,
  "optimisation": 1321,
  "716": 3976,
  "569": 4236,
  "332": 3046,
  "Ġverrou": 1677,
  "sification": 963,
  "um": 273,
  "Ġdeliver": 1961,
  "ĠcapacitÃ©": 821,
  "haque": 1530,
  "ww": 2398,
  "Ġstatistics": 2216,
  "gger": 2359,
  "Ġmetrics": 1575,
  "Ġ>": 809,
  "Ġtotal": 1258,
  "526": 3652,
  "llonn": 2155,
  "itÃ©": 480,
  "ĠagrÃ©": 1163,
  "Ġsafety": 1522,
  "Ġ739": 4123,
  "tering": 2038,
  "ĠcreateBatch": 2906,
  "ĠvalidateList": 3864,
  "Ġau": 290,
  "Ġtoken": 238,
  "443": 3596,
  "ĠgenerateState": 3336,
  "eparable": 1944,
  "Ġdatabases": 1395,
  "978": 4008,
  "09": 567,
  "ĠSep": 2445,
  "epoch": 816,
  "542": 3874,
  "109": 3626,
  "94": 2815,
  "Ġencod": 324,
  "float": 1675,
  "867": 3369,
  "inding": 753,
  "pril": 2391,
  "ature": 445,
  "ĠgetMap": 2913,
  "725": 3058,
  "Ġlo": 198,
  "Ġzeta": 2489,
  "179": 4229,
  "tra": 665,
  "786": 3032,
  "ĠAugust": 2526,
  "Ġbefore": 851,
  "lligence": 768,
  "073": 3904,
  "Ġ2249": 4029,
  "Ġ9997": 3902,
  "810": 3994,
  "300": 3631,
  "570": 3239,
  "709": 3977,
  "ĠcanGraph": 3022,
  "Ġ360": 3732,
  "amma": 1241,
  "463": 2984,
  "792": 3412,
  "eight": 2067,
  "Ġnullable": 1102,
  "ĠgetList": 3268,
  "Ġprix": 1931,
  "uate": 2634,
  "gul": 782,
  "ĠmakeConfig": 2917,
  "ĠshouldConfig": 3265,
  "ĠtempÃ©ra": 2476,
  "Ġ77": 2704,
  "ĠupdateSet": 3801,
  "368": 2992,
  "866": 3694,
  "moire": 584,
  "ĠmatÃ©riels": 1671,
  "28": 1007,
  "534": 3402,
  "Ġ93": 2799,
  "ĠhasGraph": 3130,
  "ĠtransformVersion": 3453,
  "351": 3117,
  "Ġmachine": 1030,
  "009": 3441,
  "457": 3641,
  "Ġav": 661,
  "Ġmar": 1239,
  "430": 3952,
  "Ġsem": 429,
  "79": 2790,
  "486": 3251,
  "ĠsupportÃ©e": 2167,
  "ase": 940,
  "57721": 2509,
  "igence": 767,
  "346": 2853,
  "ĠcanVersion": 2928,
  "924": 3252,
  "siteur": 1331,
  "sul": 670,
  "Ġ29": 2692,
  "diction": 1186,
  "839": 3992,
  "Ġnetwork": 660,
  "Ġobjet": 2096,
  "ciplin": 1355,
  "58": 1632,
  "ĠMulti": 1891,
  "Ġ|": 2414,
  "Ġl": 132,
  "AdamW": 2659,
  "ule": 690,
  "170": 3837,
  "Ġhidden": 1954,
  "Ġmodule": 1164,
  "Ġ980": 3783,
  "j": 80,
  "¨": 104,
  "Ġclass": 1221,
  "Ġgenerative": 2324,
  "Ġ416": 4076,
  "Ġtable": 663,
  "Ġtri": 1174,
  "Ġinteger": 1783,
  "Ġ690": 3767,
  "Ġschedul": 2571,
  "bo": 2265,
  "329": 3946,
  "K": 50,
  "de": 829,
  "Ġeach": 890,
  "Ġ1414": 4015,
  "190": 3826,
  "Ġneuronale": 1831,
  "881": 3161,
  "Ġimproves": 1515,
  "022": 3622,
  "ost": 907,
  "antic": 787,
  "Set": 2540,
  "ĠcanMap": 3145,
  "004": 3725,
  "Ġgenerate": 1571,
  "hin": 905,
  "233": 3389,
  "ig": 201,
  "Ġconvolutif": 1805,
  "03": 2758,
  "Ġpo": 240,
  "Ġdel": 530,
  "Ġauth": 640,
  "518": 3399,
  "124": 3628,
  "682": 4321,
  "empre": 1924,
  "377": 2880,
  "ĠMixed": 2178,
  "ĠhasEdge": 3845,
  "ĠhasLayer": 2924,
  "ĠisStatus": 3229,
  "prentissage": 2108,
  "mb": 313,
  "ĠG": 440,
  "irt": 987,
  "at": 148,
  "poch": 547,
  "Ġdas": 2269,
  "942": 4011,
  "cÃ©": 2280,
  "Ġuses": 603,
  "ification": 662,
  "morphis": 1058,
  "Ġaudit": 1121,
  "andby": 1115,
  "Ġ753": 3473,
  "cision": 697,
  "95": 2890,
  "epochs": 2557,
  "218": 3085,
  "ĠmakeLayer": 3534,
  "718": 2343,
  "Ġadds": 1572,
  "Ġ7615": 4304,
  "737": 3983,
  "rapp": 1406,
  "ĠprocessStatus": 2969,
  "Ġ329": 3068,
  "a": 71,
  "ĠbibliothÃ¨que": 2139,
  "ety": 1508,
  "expÃ©rience": 1487,
  "atre": 2151,
  "9": 32,
  "entraÃ®nement": 1066,
  "Ġsci": 765,
  "69": 2739,
  "apsul": 1089,
  "Ġ0": 203,
  "et": 170,
  "ĠfindModel": 2926,
  "120": 2851,
  "3861": 4181,
  "ĠSDPA": 853,
  "ĠbuildBlock": 2836,
  "Ġ[": 2409,
  "Ġreconnais": 2094,
  "Ġstatis": 1184,
  "Ġ724": 3083,
  "ĠupdateSample": 3798,
  "ĠrÃ©sidu": 1354,
  "Ġplatforms": 1486,
  "gmenter": 1006,
  "ĠrÃ©sul": 1704,
  "Ãł": 854,
  "Ġacti": 489,
  "280": 3249,
  "531": 3604,
  "795": 3618,
  "ckage": 1097,
  "Ġdistances": 1906,
  "Ġ428": 4079,
  "Ġsupporte": 2166,
  "Ġwork": 1446,
  "ĠconvertStatus": 3313,
  "Ġbitsandby": 1116,
  "461": 4195,
  "Ġfrom": 825,
  "Ġ=": 215,
  "dimensional": 1391,
  "tures": 1873,
  "Ġtun": 1131,
  "034": 3925,
  "Ġdelete": 1494,
  "ison": 1625,
  "Ġtyping": 2575,
  "Ġautoregressive": 1810,
  "ace": 1083,
  "52": 2542,
  "Ã¨se": 1703,
  "442": 3870,
  "ort": 381,
  "ct": 305,
  "Ġ952": 4139,
  "Ġ2439": 4334,
  "Ġuser": 516,
  "Ġse": 342,
  "Ġtex": 462,
  "ĠshouldState": 2826,
  "Ġsoftmax": 1591,
  "is": 136,
  "Ġbinding": 756,
  "75": 2822,
  "Ġreport": 1855,
  "Ġcap": 346,
  "ĠaccÃ©lÃ©rer": 2241,
  "vers": 694,
  "Ġ930": 4130,
  "pisodi": 801,
  "Ġasynchronous": 2130,
  "Ġavril": 2488,
  "323": 4273,
  "generate": 2555,
  "M": 52,
  "Ġ2008": 2794,
  "Ġswitch": 2052,
  "Ġcolum": 2035,
  "*": 17,
  "Ġff": 1973,
  "mall": 1402,
  "Ġprogra": 1154,
  "891": 3166,
  "Ġtroncature": 2326,
  "ffrement": 977,
  "213": 3791,
  "551": 4287,
  "Ġtw": 875,
  "244": 2905,
  "Ġtraining": 473,
  "ends": 1690,
  "ale": 1818,
  "Ġ2019": 2738,
  "Ġbo": 1072,
  "(),": 1849,
  "Sample": 2064,
  "ĠSeptember": 2519,
  "(": 15,
  "8093": 4001,
  "Ġsynchronisation": 2274,
  "001": 3724,
  "Ġ300": 4034,
  "Ġligne": 1907,
  "ĠcanEdge": 3583,
  "ĠsetBatch": 3291,
  "055": 3377,
  "Ġtra": 467,
  "Ġcan": 1547,
  "yment": 2109,
  "927": 3254,
  "507": 4149,
  "ĠdÃ©sÃ©rialisation": 2278,
  "Ġ989": 4138,
  "Ġrecherche": 775,
  "648": 3662,
  "512": 3661,
  "Ġemb": 657,
  "cembre": 2434,
  "ĠvalidateGraph": 2932,
  "548": 2948,
  "118": 3177,
  "ercre": 2420,
  "Ġfo": 1065,
  "406": 3299,
  "Ġ957": 3780,
  "Ġ47": 2807,
  "Ġbruit": 1557,
  "664": 3358,
  "Ġcognitive": 1983,
  "Ġexamp": 2116,
  "Ġallows": 1960,
  "th": 490,
  "ĠhasBlock": 3555,
  "ĠconvertMap": 3311,
  "ĠconvertVersion": 4240,
  "atif": 1761,
  "Module": 1620,
  "vergence": 509,
  "aset": 878,
  "St": 2248,
  "344": 3184,
  "3": 26,
  "ĠsetQueue": 3550,
  "ĠshouldInfo": 2990,
  "603": 4291,
  "Ġ347": 3443,
  "Ġtest": 2287,
  "orÃ©alistes": 1723,
  "Ġ8396": 4056,
  "Ġ6840": 4332,
  "turn": 2303,
  "ĠupdateGraph": 2903,
  "ondition": 1743,
  "Fal": 2676,
  "weight": 722,
  "108": 3158,
  "f": 76,
  "Qu": 1987,
  "://": 334,
  "147": 3789,
  "Ġinfo": 1990,
  "29": 1272,
  "ĠReinforcement": 1516,
  "si": 153,
  "Ġ3235": 4336,
  "ĠMix": 2158,
  "366": 3109,
  "225": 2886,
  "ĠfindGraph": 3570,
  "Ġles": 296,
  "ross": 566,
  "Ġarti": 1346,
  "Ġalgor": 1011,
  "Ġchi": 939,
  "ves": 478,
  "ĠsetLayer": 3121,
  "ts": 242,
  "ing": 150,
  "ĠrÃ©duction": 2271,
  "735": 3982,
  "ropy": 1695,
  "ĠprocessSet": 3492,
  "Ġsynchron": 1126,
  "815": 2825,
  "Ġ292": 3436,
  "ĠcreateKind": 2978,
  "reate": 1225,
  "Ã¨les": 1602,
  "122": 2939,
  "Ġ727": 3775,
  "Ġ1990": 2733,
  "ĠcomputeData": 3469,
  "inte": 858,
  "Ġeight": 1551,
  "429": 3394,
  "793": 3915,
  "ly": 653,
  "957": 3063,
  "ĠcreateStatus": 3812,
  "Ġtemperature": 710,
  "Ġ56": 2754,
  "ili": 548,
  "Ġaudio": 2083,
  "Ġsel": 331,
  "ĠhiÃ©rarchi": 872,
  "25": 1280,
  "batches": 1264,
  "ĠconvertState": 4238,
  "816": 3990,
  "ĠcreateBlock": 3096,
  "chas": 744,
  "ol": 327,
  "Ġ218": 4021,
  "879": 3899,
  "router": 2561,
  "ateur": 651,
  "ĠdeleteGraph": 3573,
  "ĠSentiment": 1559,
  "t": 90,
  "Ġ2024": 1660,
  "82": 2841,
  "ĠtransformBatch": 3447,
  "ach": 620,
  "ĠmodÃ¨les": 565,
  "bj": 1139,
  "Ġjournalisation": 2342,
  "875": 3898,
  "ĠcreateData": 2980,
  "Ġ2001": 2735,
  "100": 2829,
  "Ġproduction": 942,
  "Ġmedia": 1589,
  "ĠProgressive": 967,
  "Ġtrop": 1580,
  "ĠÃł": 855,
  "ĠshouldEdge": 3266,
  "eler": 608,
  "Ġabst": 1019,
  "418": 3186,
  "126": 3380,
  "Ġhttps": 361,
  "Ġtranslators": 1833,
  "Ġgaussian": 1587,
  "161": 3461,
  "enti": 268,
  "Ġtail": 1408,
  "_(": 2566,
  "rans": 222,
  "476": 3118,
  "656": 3967,
  "llable": 1096,
  "ocast": 2602,
  "nn": 1169,
  "Ġregularization": 1432,
  "moe": 2636,
  "Ġcompute": 439,
  "ver": 223,
  "erves": 1744,
  "776": 3984,
  "yer": 701,
  "torch": 1737,
  "ĠconvertInfo": 3014,
  "st": 190,
  "Ġ948": 3781,
  "ĠamÃ©liore": 1523,
  "Ġabstraction": 1024,
  "ĠrÃ©se": 1090,
  "Ã©nÃ©": 682,
  "ĠĠĠĠĠĠĠ": 1049,
  "jor": 1816,
  "pro": 1948,
  "Ġ457": 4078,
  "Ġavec": 997,
  "Ġdeman": 2030,
  "ĠmakeBlock": 2996,
  "Ġdataloader": 2606,
  "ĠgÃ©nÃ©ration": 903,
  "ast": 2598,
  "316": 3944,
  "lection": 592,
  "0": 23,
  "Ġfaster": 1845,
  "Ġacross": 786,
  "Ġcon": 192,
  "Ġfour": 2172,
  "m": 83,
  "196": 3116,
  "Ġun": 593,
  "Ġtraducteurs": 1827,
  "ĠintÃ©": 2187,
  "hod": 860,
  "V": 61,
  "iteur": 1686,
  "to": 246,
  "Ġs": 128,
  "ĠRoPE": 466,
  "ĠhiÃ©rarchiques": 1898,
  "Ġrep": 645,
  "556": 2949
}