{
  "version": "1.0",
  "truncation": null,
  "padding": {
    "strategy": "BatchLongest",
    "direction": "Right",
    "pad_to_multiple_of": null,
    "pad_id": 0,
    "pad_type_id": 0,
    "pad_token": "<pad>"
  },
  "added_tokens": [
    {
      "id": 0,
      "content": "<pad>",
      "single_word": false,
      "lstrip": false,
      "rstrip": false,
      "normalized": false,
      "special": true
    },
    {
      "id": 1,
      "content": "<bos>",
      "single_word": false,
      "lstrip": false,
      "rstrip": false,
      "normalized": false,
      "special": true
    },
    {
      "id": 2,
      "content": "<eos>",
      "single_word": false,
      "lstrip": false,
      "rstrip": false,
      "normalized": false,
      "special": true
    },
    {
      "id": 3,
      "content": "<unk>",
      "single_word": false,
      "lstrip": false,
      "rstrip": false,
      "normalized": false,
      "special": true
    },
    {
      "id": 4,
      "content": "<think>",
      "single_word": false,
      "lstrip": false,
      "rstrip": false,
      "normalized": false,
      "special": true
    },
    {
      "id": 5,
      "content": "<code>",
      "single_word": false,
      "lstrip": false,
      "rstrip": false,
      "normalized": false,
      "special": true
    },
    {
      "id": 6,
      "content": "<fr>",
      "single_word": false,
      "lstrip": false,
      "rstrip": false,
      "normalized": false,
      "special": true
    },
    {
      "id": 7,
      "content": "<en>",
      "single_word": false,
      "lstrip": false,
      "rstrip": false,
      "normalized": false,
      "special": true
    }
  ],
  "normalizer": null,
  "pre_tokenizer": {
    "type": "ByteLevel",
    "add_prefix_space": true,
    "trim_offsets": true,
    "use_regex": true
  },
  "post_processor": {
    "type": "TemplateProcessing",
    "single": [
      {
        "SpecialToken": {
          "id": "<bos>",
          "type_id": 0
        }
      },
      {
        "Sequence": {
          "id": "A",
          "type_id": 0
        }
      },
      {
        "SpecialToken": {
          "id": "<eos>",
          "type_id": 0
        }
      }
    ],
    "pair": [
      {
        "SpecialToken": {
          "id": "<bos>",
          "type_id": 0
        }
      },
      {
        "Sequence": {
          "id": "A",
          "type_id": 0
        }
      },
      {
        "SpecialToken": {
          "id": "<eos>",
          "type_id": 0
        }
      },
      {
        "Sequence": {
          "id": "B",
          "type_id": 1
        }
      },
      {
        "SpecialToken": {
          "id": "<eos>",
          "type_id": 1
        }
      }
    ],
    "special_tokens": {
      "<bos>": {
        "id": "<bos>",
        "ids": [
          1
        ],
        "tokens": [
          "<bos>"
        ]
      },
      "<eos>": {
        "id": "<eos>",
        "ids": [
          2
        ],
        "tokens": [
          "<eos>"
        ]
      }
    }
  },
  "decoder": {
    "type": "ByteLevel",
    "add_prefix_space": true,
    "trim_offsets": true,
    "use_regex": true
  },
  "model": {
    "type": "BPE",
    "dropout": null,
    "unk_token": "<unk>",
    "continuing_subword_prefix": null,
    "end_of_word_suffix": null,
    "fuse_unk": false,
    "byte_fallback": false,
    "ignore_merges": false,
    "vocab": {
      "<pad>": 0,
      "<bos>": 1,
      "<eos>": 2,
      "<unk>": 3,
      "<think>": 4,
      "<code>": 5,
      "<fr>": 6,
      "<en>": 7,
      "!": 8,
      "\"": 9,
      "#": 10,
      "$": 11,
      "%": 12,
      "&": 13,
      "'": 14,
      "(": 15,
      ")": 16,
      "*": 17,
      "+": 18,
      ",": 19,
      "-": 20,
      ".": 21,
      "/": 22,
      "0": 23,
      "1": 24,
      "2": 25,
      "3": 26,
      "4": 27,
      "5": 28,
      "6": 29,
      "7": 30,
      "8": 31,
      "9": 32,
      ":": 33,
      ";": 34,
      "<": 35,
      "=": 36,
      ">": 37,
      "?": 38,
      "@": 39,
      "A": 40,
      "B": 41,
      "C": 42,
      "D": 43,
      "E": 44,
      "F": 45,
      "G": 46,
      "H": 47,
      "I": 48,
      "J": 49,
      "K": 50,
      "L": 51,
      "M": 52,
      "N": 53,
      "O": 54,
      "P": 55,
      "Q": 56,
      "R": 57,
      "S": 58,
      "T": 59,
      "U": 60,
      "V": 61,
      "W": 62,
      "X": 63,
      "Z": 64,
      "[": 65,
      "\\": 66,
      "]": 67,
      "^": 68,
      "_": 69,
      "`": 70,
      "a": 71,
      "b": 72,
      "c": 73,
      "d": 74,
      "e": 75,
      "f": 76,
      "g": 77,
      "h": 78,
      "i": 79,
      "j": 80,
      "k": 81,
      "l": 82,
      "m": 83,
      "n": 84,
      "o": 85,
      "p": 86,
      "q": 87,
      "r": 88,
      "s": 89,
      "t": 90,
      "u": 91,
      "v": 92,
      "w": 93,
      "x": 94,
      "y": 95,
      "z": 96,
      "{": 97,
      "|": 98,
      "}": 99,
      "~": 100,
      "£": 101,
      "¥": 102,
      "§": 103,
      "¨": 104,
      "©": 105,
      "ª": 106,
      "¬": 107,
      "®": 108,
      "¹": 109,
      "½": 110,
      "Â": 111,
      "Ã": 112,
      "â": 113,
      "Ġ": 114,
      "Ĥ": 115,
      "ł": 116,
      "on": 117,
      "ti": 118,
      "er": 119,
      "en": 120,
      "in": 121,
      "es": 122,
      "tion": 123,
      "Ã©": 124,
      "re": 125,
      "Ġd": 126,
      "ra": 127,
      "Ġs": 128,
      "Ġp": 129,
      "Ġt": 130,
      "Ġa": 131,
      "Ġl": 132,
      "or": 133,
      "te": 134,
      "Ġc": 135,
      "is": 136,
      "al": 137,
      "ĠĠ": 138,
      "Ġm": 139,
      "an": 140,
      "ro": 141,
      "ch": 142,
      "ation": 143,
      "ent": 144,
      "el": 145,
      "od": 146,
      "it": 147,
      "at": 148,
      "ar": 149,
      "ing": 150,
      "ĠL": 151,
      "le": 152,
      "si": 153,
      "qu": 154,
      "ce": 155,
      "om": 156,
      "Ġe": 157,
      "ur": 158,
      "ut": 159,
      "fi": 160,
      "Ġn": 161,
      "ge": 162,
      "Ġde": 163,
      "Ġin": 164,
      "Ġre": 165,
      "Ġh": 166,
      "di": 167,
      "Ġb": 168,
      "as": 169,
      "et": 170,
      "Ġf": 171,
      "per": 172,
      "ction": 173,
      "Ġto": 174,
      "ss": 175,
      "rÃ©": 176,
      "Ġg": 177,
      "ment": 178,
      "orm": 179,
      "ri": 180,
      "ate": 181,
      "ĠĠĠĠ": 182,
      "ed": 183,
      "Ġ1": 184,
      "Ġu": 185,
      "Ġo": 186,
      "ran": 187,
      "Ġ2": 188,
      "lo": 189,
      "st": 190,
      "du": 191,
      "Ġcon": 192,
      "Ġmod": 193,
      "age": 194,
      "am": 195,
      "iz": 196,
      "Ġpro": 197,
      "Ġlo": 198,
      "Ġex": 199,
      "ve": 200,
      "ig": 201,
      "Ġro": 202,
      "Ġ0": 203,
      "que": 204,
      "res": 205,
      "enc": 206,
      "po": 207,
      "fic": 208,
      "ex": 209,
      "sion": 210,
      "he": 211,
      "ll": 212,
      "ken": 213,
      "ence": 214,
      "Ġ=": 215,
      "Ġla": 216,
      "com": 217,
      "ĠLa": 218,
      "ck": 219,
      "ĠS": 220,
      "tt": 221,
      "rans": 222,
      "ver": 223,
      "Ġ20": 224,
      "ĠR": 225,
      "se": 226,
      "Ġcom": 227,
      "Ã¨": 228,
      "form": 229,
      "em": 230,
      "ap": 231,
      "ces": 232,
      "Ġac": 233,
      "Ġpa": 234,
      "Ġle": 235,
      "ĠrÃ©": 236,
      "amp": 237,
      "Ġtoken": 238,
      "ab": 239,
      "Ġpo": 240,
      "alis": 241,
      "ts": 242,
      "Ġtrans": 243,
      "tim": 244,
      "ĠsÃ©": 245,
      "to": 246,
      "ĠT": 247,
      "ure": 248,
      "Ġv": 249,
      "ul": 250,
      "its": 251,
      "il": 252,
      "us": 253,
      "ne": 254,
      "Ġper": 255,
      "ati": 256,
      "ci": 257,
      "Ġw": 258,
      "ptim": 259,
      "Ġenc": 260,
      "ization": 261,
      "vis": 262,
      "00": 263,
      "ng": 264,
      "ting": 265,
      "ĠÃ©": 266,
      "ute": 267,
      "enti": 268,
      "ample": 269,
      "ĠdÃ©": 270,
      "un": 271,
      "Ġcl": 272,
      "um": 273,
      "up": 274,
      "uper": 275,
      "Ġdes": 276,
      "ser": 277,
      "ho": 278,
      "chi": 279,
      "rain": 280,
      "Ġco": 281,
      "les": 282,
      "upervis": 283,
      "igh": 284,
      "Ġaut": 285,
      "Ġ3": 286,
      "ay": 287,
      "fication": 288,
      "Ġcomp": 289,
      "Ġau": 290,
      "Ġdi": 291,
      "ine": 292,
      "gra": 293,
      "anti": 294,
      "Ġpar": 295,
      "Ġles": 296,
      "ding": 297,
      "Ġmodel": 298,
      "ni": 299,
      "()": 300,
      "gits": 301,
      "Ġatt": 302,
      "dim": 303,
      "ds": 304,
      "ct": 305,
      "ĠLes": 306,
      "Ġdat": 307,
      "Ġfor": 308,
      "ph": 309,
      "ter": 310,
      "Ġexper": 311,
      "Ġoptim": 312,
      "mb": 313,
      "ance": 314,
      "atch": 315,
      "ĠLe": 316,
      "ire": 317,
      "Ġpara": 318,
      "ant": 319,
      "Ġloss": 320,
      "Ġdec": 321,
      "ps": 322,
      "gu": 323,
      "Ġencod": 324,
      "raining": 325,
      "Ġqu": 326,
      "ol": 327,
      "loss": 328,
      "par": 329,
      "Ġacc": 330,
      "Ġsel": 331,
      "ention": 332,
      "//": 333,
      "://": 334,
      "Ġhtt": 335,
      "nÃ©": 336,
      "Ġrout": 337,
      "mo": 338,
      "ĠprÃ©": 339,
      "pe": 340,
      "Ġclas": 341,
      "Ġse": 342,
      "inf": 343,
      "eur": 344,
      "ĠmodÃ¨": 345,
      "Ġcap": 346,
      "ĠThe": 347,
      "Ġdu": 348,
      "cal": 349,
      "able": 350,
      "radi": 351,
      "Ġtransform": 352,
      "radient": 353,
      "odel": 354,
      "Ġtop": 355,
      "ĠM": 356,
      "Ġ8": 357,
      "ff": 358,
      "Ġma": 359,
      "example": 360,
      "Ġhttps": 361,
      "Ġon": 362,
      "Ġst": 363,
      "Ġsy": 364,
      "Ġpre": 365,
      "Ġis": 366,
      "Ġof": 367,
      "isation": 368,
      "Ġthe": 369,
      "Ġattention": 370,
      "eu": 371,
      "Ġth": 372,
      "Ġwit": 373,
      "gres": 374,
      "end": 375,
      "id": 376,
      "Ã©ri": 377,
      "ution": 378,
      "duction": 379,
      "ma": 380,
      "ort": 381,
      "Ġinter": 382,
      "Ġj": 383,
      "Ġlan": 384,
      "Ġ5": 385,
      "ight": 386,
      "sition": 387,
      "ĠF": 388,
      "Ġal": 389,
      "int": 390,
      "Ġlogits": 391,
      "ron": 392,
      "ĠC": 393,
      "comm": 394,
      "Ġ202": 395,
      "pat": 396,
      "til": 397,
      "path": 398,
      "Ġpour": 399,
      "ĠmÃ©": 400,
      "day": 401,
      "tep": 402,
      "ore": 403,
      "pp": 404,
      "ĠD": 405,
      "ension": 406,
      "ĠRo": 407,
      "16": 408,
      "supervis": 409,
      "Ġ4": 410,
      "put": 411,
      "Ġencoder": 412,
      "met": 413,
      "Ã©l": 414,
      "ac": 415,
      "orch": 416,
      "nel": 417,
      "Ġhum": 418,
      "au": 419,
      "parse": 420,
      "vi": 421,
      "ist": 422,
      "tes": 423,
      "arch": 424,
      "arn": 425,
      "Ġlearn": 426,
      "ion": 427,
      "og": 428,
      "Ġsem": 429,
      "ĠĠĠ": 430,
      "ad": 431,
      "mp": 432,
      "ration": 433,
      "Ġ6": 434,
      "che": 435,
      "alisation": 436,
      "99": 437,
      "ial": 438,
      "Ġcompute": 439,
      "ĠG": 440,
      "ckpo": 441,
      "Ġ7": 442,
      "ode": 443,
      "ener": 444,
      "ature": 445,
      "gg": 446,
      "ption": 447,
      "ary": 448,
      "Ġ.": 449,
      "eta": 450,
      "me": 451,
      "fer": 452,
      "ĠA": 453,
      "model": 454,
      "ard": 455,
      "Ġutil": 456,
      "Ġutilis": 457,
      "Ġhi": 458,
      "Ġ10": 459,
      "teur": 460,
      "Ġbe": 461,
      "Ġtex": 462,
      "ĠĠĠĠĠĠĠĠ": 463,
      "ois": 464,
      "PE": 465,
      "ĠRoPE": 466,
      "Ġtra": 467,
      "cur": 468,
      "ral": 469,
      "ĠP": 470,
      "MS": 471,
      "Ġ9": 472,
      "Ġtraining": 473,
      "ĠRMS": 474,
      "Ġexperts": 475,
      "tic": 476,
      "ection": 477,
      "ves": 478,
      "aly": 479,
      "itÃ©": 480,
      "Ġso": 481,
      "Ġparall": 482,
      "Norm": 483,
      "ork": 484,
      "duit": 485,
      "duces": 486,
      "Ġcompo": 487,
      "rchi": 488,
      "Ġacti": 489,
      "th": 490,
      "Ġclassi": 491,
      "gressi": 492,
      "olution": 493,
      "Ġan": 494,
      "Ġlon": 495,
      "Ġra": 496,
      "ity": 497,
      "Ġtorch": 498,
      "and": 499,
      "plo": 500,
      "ers": 501,
      "orce": 502,
      "Ġgener": 503,
      "Ġaux": 504,
      "orcement": 505,
      "sor": 506,
      "ensor": 507,
      "gence": 508,
      "vergence": 509,
      "Ġlearning": 510,
      "Ãª": 511,
      "Ã©ra": 512,
      "ized": 513,
      "pend": 514,
      "edding": 515,
      "Ġuser": 516,
      "ta": 517,
      "Ġdecod": 518,
      "ype": 519,
      "lock": 520,
      "tat": 521,
      "Ġsyn": 522,
      "ative": 523,
      "Ġass": 524,
      "dition": 525,
      "Ġi": 526,
      "ix": 527,
      "uting": 528,
      "Ġrouting": 529,
      "Ġdel": 530,
      "Ġposition": 531,
      "fil": 532,
      "we": 533,
      "est": 534,
      "Ġself": 535,
      "ture": 536,
      "Ã©r": 537,
      "Ġad": 538,
      "Ġwith": 539,
      "Ġrouter": 540,
      "ses": 541,
      "chron": 542,
      "li": 543,
      "op": 544,
      "batch": 545,
      "Ġinst": 546,
      "poch": 547,
      "ili": 548,
      "Ġnu": 549,
      "bit": 550,
      "dimension": 551,
      "Ġtem": 552,
      "ering": 553,
      "fig": 554,
      "Ġdim": 555,
      "iter": 556,
      "ĠN": 557,
      "vent": 558,
      "Ġprevent": 559,
      "Ġgradient": 560,
      "step": 561,
      "Ġsu": 562,
      "ĠsÃ©m": 563,
      "are": 564,
      "ĠmodÃ¨les": 565,
      "ross": 566,
      "09": 567,
      "ases": 568,
      "14": 569,
      "hi": 570,
      "cess": 571,
      "guage": 572,
      "Ġlanguage": 573,
      "ĠE": 574,
      "Ġres": 575,
      "Ġmet": 576,
      "token": 577,
      "ans": 578,
      "Ġcapac": 579,
      "ory": 580,
      "Ġmem": 581,
      "Ġinte": 582,
      "Ġroutage": 583,
      "moire": 584,
      "ĠmÃ©moire": 585,
      "Ġmemory": 586,
      "Ġrecomm": 587,
      "ression": 588,
      "grad": 589,
      "Ġat": 590,
      "els": 591,
      "lection": 592,
      "Ġun": 593,
      "izer": 594,
      "ences": 595,
      "ĠsÃ©lection": 596,
      "lat": 597,
      "Ġqual": 598,
      "Ġnorm": 599,
      "eural": 600,
      "rement": 601,
      "Ġapp": 602,
      "Ġuses": 603,
      "Ġutilise": 604,
      "ĠmodÃ¨le": 605,
      "Ġsto": 606,
      "rou": 607,
      "eler": 608,
      "Ġperform": 609,
      "ĠaccÃ©l": 610,
      "Ġacceler": 611,
      "curr": 612,
      "Ġreduces": 613,
      "ĠrÃ©duit": 614,
      "Ġhuman": 615,
      "onnÃ©": 616,
      "ĠdonnÃ©": 617,
      "ĠdonnÃ©es": 618,
      "ain": 619,
      "ach": 620,
      "ren": 621,
      "Ġ100": 622,
      "âĤ": 623,
      "ĠâĤ": 624,
      "alid": 625,
      "ances": 626,
      "Ġ199": 627,
      "Ġvalid": 628,
      "Ġsearch": 629,
      "gressive": 630,
      "Ġanaly": 631,
      "usion": 632,
      "Ġrequ": 633,
      "volution": 634,
      "nement": 635,
      "Mo": 636,
      "ir": 637,
      "ind": 638,
      "Ġche": 639,
      "Ġauth": 640,
      "Ġoptimization": 641,
      "MoE": 642,
      "Ġcheckpo": 643,
      "onn": 644,
      "Ġrep": 645,
      "Ġuni": 646,
      "ĠGradient": 647,
      "Ġdecoding": 648,
      "Ġas": 649,
      "Ġ12": 650,
      "ateur": 651,
      "ara": 652,
      "ly": 653,
      "para": 654,
      "ransform": 655,
      "work": 656,
      "Ġemb": 657,
      "Ġnet": 658,
      "Ġembedding": 659,
      "Ġnetwork": 660,
      "Ġav": 661,
      "ification": 662,
      "Ġtable": 663,
      "Ġdata": 664,
      "tra": 665,
      "Ġdis": 666,
      "Ġmon": 667,
      "Ġup": 668,
      "uple": 669,
      "sul": 670,
      "ware": 671,
      "Ġest": 672,
      "Ġconst": 673,
      "ry": 674,
      "Ã®": 675,
      "raÃ®": 676,
      "entraÃ®": 677,
      "Ġbatch": 678,
      "Ġ200": 679,
      "inforcement": 680,
      "state": 681,
      "Ã©nÃ©": 682,
      "Ġmat": 683,
      "ĠgÃ©nÃ©": 684,
      "Ġsequ": 685,
      "Ã©e": 686,
      "Ġsupervis": 687,
      "Ġinfer": 688,
      "Ġinference": 689,
      "ule": 690,
      "Ġcondition": 691,
      "ĠSparse": 692,
      "Ġnon": 693,
      "vers": 694,
      "Ġimp": 695,
      "cis": 696,
      "cision": 697,
      "tif": 698,
      "ayer": 699,
      "vel": 700,
      "yer": 701,
      "ropo": 702,
      "supervised": 703,
      "ropout": 704,
      "cre": 705,
      "Ġsup": 706,
      "Ġpri": 707,
      "perature": 708,
      "ciation": 709,
      "Ġtemperature": 710,
      "Ġsupp": 711,
      "):": 712,
      "Ġby": 713,
      "ĠdÃ©c": 714,
      "50": 715,
      "Ġsur": 716,
      "Ġoptimizer": 717,
      "erial": 718,
      "onfig": 719,
      "Ġen": 720,
      "Ġout": 721,
      "weight": 722,
      "logits": 723,
      "version": 724,
      "hot": 725,
      "Ġjo": 726,
      "Ġtokens": 727,
      "optim": 728,
      "ata": 729,
      "cle": 730,
      "21": 731,
      "gent": 732,
      "ite": 733,
      "mer": 734,
      "mergent": 735,
      "30": 736,
      "min": 737,
      "supervisÃ©": 738,
      "gate": 739,
      "elle": 740,
      "fici": 741,
      "atus": 742,
      "Ġdom": 743,
      "chas": 744,
      "Ġdesc": 745,
      "Ġdomin": 746,
      "18": 747,
      "Net": 748,
      "Ġ*": 749,
      "ĠCog": 750,
      "ĠCogNet": 751,
      "yper": 752,
      "inding": 753,
      "fill": 754,
      "Ġhyper": 755,
      "Ġbinding": 756,
      "Ġrole": 757,
      "filler": 758,
      "Ġhyperdimension": 759,
      "arge": 760,
      "Ġgran": 761,
      "lon": 762,
      "ouple": 763,
      "rti": 764,
      "Ġsci": 765,
      "Ġmoder": 766,
      "igence": 767,
      "lligence": 768,
      "Ġdecouple": 769,
      "Ġscienti": 770,
      "Ġdecoupled": 771,
      "erche": 772,
      "cherche": 773,
      "elles": 774,
      "Ġrecherche": 775,
      "Ġz": 776,
      "ctor": 777,
      "15": 778,
      "Ġover": 779,
      "bal": 780,
      "cing": 781,
      "gul": 782,
      "Ġsig": 783,
      "ancing": 784,
      "Ġload": 785,
      "Ġacross": 786,
      "antic": 787,
      "antique": 788,
      "nific": 789,
      "Ġsemantic": 790,
      "Ġauxili": 791,
      "Ġprevents": 792,
      "ĠsÃ©mantique": 793,
      "balancing": 794,
      "gular": 795,
      "Ġsignific": 796,
      "ail": 797,
      "pis": 798,
      "odi": 799,
      "Ġgra": 800,
      "pisodi": 801,
      "gage": 802,
      "ke": 803,
      "Ġscal": 804,
      "Ġbi": 805,
      "Ġlangage": 806,
      "dam": 807,
      "Ġ<": 808,
      "Ġ>": 809,
      "ĠJ": 810,
      "Ġpers": 811,
      "mber": 812,
      "mbre": 813,
      "ĠO": 814,
      "Ġexpert": 815,
      "epoch": 816,
      "Ġtro": 817,
      "roup": 818,
      "Ġgroup": 819,
      "ĠRe": 820,
      "ĠcapacitÃ©": 821,
      "tier": 822,
      "aliz": 823,
      "rom": 824,
      "Ġfrom": 825,
      "perts": 826,
      "experts": 827,
      "Ġassist": 828,
      "de": 829,
      "Ġmodels": 830,
      "Ġdatab": 831,
      "aus": 832,
      "uit": 833,
      "tions": 834,
      "Ġnois": 835,
      "Ġhigh": 836,
      "Ġgaus": 837,
      "entiment": 838,
      "Ġdivergence": 839,
      "motions": 840,
      "Ġclassifi": 841,
      "Ġgaussi": 842,
      "Ġsparse": 843,
      "Ġparamet": 844,
      "Ġparameter": 845,
      "57": 846,
      "DP": 847,
      "fore": 848,
      "ĠSDP": 849,
      "ĠÃ©ch": 850,
      "Ġbefore": 851,
      "Ġavant": 852,
      "ĠSDPA": 853,
      "Ãł": 854,
      "ĠÃł": 855,
      "Ġrecommand": 856,
      "ms": 857,
      "inte": 858,
      "Ġappli": 859,
      "hod": 860,
      "Ġneural": 861,
      "Ġmethod": 862,
      "erar": 863,
      "Ġsans": 864,
      "cial": 865,
      "hout": 866,
      "chical": 867,
      "Ġwithout": 868,
      "aux": 869,
      "ĠhiÃ©ra": 870,
      "Ġhierar": 871,
      "ĠhiÃ©rarchi": 872,
      "Ġhierarchical": 873,
      "type": 874,
      "Ġtw": 875,
      "ement": 876,
      "Ġme": 877,
      "aset": 878,
      "Ġprocess": 879,
      "Ġdataset": 880,
      "Ġselection": 881,
      "aire": 882,
      "alise": 883,
      "ack": 884,
      "back": 885,
      "ires": 886,
      "Ġ+": 887,
      "all": 888,
      "ante": 889,
      "Ġeach": 890,
      "ĠnÃ©": 891,
      "ask": 892,
      "ĠsÃ©qu": 893,
      "Ġdiff": 894,
      "Ġparallel": 895,
      "renti": 896,
      "ures": 897,
      "ssage": 898,
      "Ġbeam": 899,
      "ĠRMSNorm": 900,
      "Ġnormalisation": 901,
      "rentissage": 902,
      "ĠgÃ©nÃ©ration": 903,
      "gh": 904,
      "hin": 905,
      "idu": 906,
      "ost": 907,
      "tio": 908,
      "Ġhard": 909,
      "lla": 910,
      "chilla": 911,
      "Ġthrou": 912,
      "ĠChin": 913,
      "Ġratio": 914,
      "Ġsynth": 915,
      "idual": 916,
      "Ġhardware": 917,
      "Ġthrough": 918,
      "ĠChinchilla": 919,
      "ors": 920,
      "orÃ©": 921,
      "rib": 922,
      "Ġattrib": 923,
      "teurs": 924,
      "Ġdele": 925,
      "Ġauthenti": 926,
      "cation": 927,
      "ger": 928,
      "odage": 929,
      "ception": 930,
      "Ġexplo": 931,
      "Ġextra": 932,
      "Ġexception": 933,
      "Ġquanti": 934,
      "Ġgeneration": 935,
      "Ġperformance": 936,
      "Ġaccelerate": 937,
      "Ġextrapo": 938,
      "Ġchi": 939,
      "ase": 940,
      "range": 941,
      "Ġproduction": 942,
      "Ġactive": 943,
      "ag": 944,
      "dom": 945,
      "jection": 946,
      "Ġri": 947,
      "Ġprojection": 948,
      "Ġrot": 949,
      "apho": 950,
      "ĠdÃ©pend": 951,
      "Ġstag": 952,
      "domain": 953,
      "Ġriv": 954,
      "aphore": 955,
      "Ġstaging": 956,
      "uil": 957,
      "gues": 958,
      "Ġlongues": 959,
      "Ġqualification": 960,
      "date": 961,
      "rogressive": 962,
      "sification": 963,
      "Ġneur": 964,
      "ĠLayer": 965,
      "ĠSpar": 966,
      "ĠProgressive": 967,
      "Ġupdate": 968,
      "Ġneuron": 969,
      "ĠLayerNorm": 970,
      "ĠSparsification": 971,
      "dding": 972,
      "training": 973,
      "dure": 974,
      "Ġpromp": 975,
      "Ġpadding": 976,
      "ffrement": 977,
      "Ãªte": 978,
      "Ġprompt": 979,
      "tun": 980,
      "tique": 981,
      "ations": 982,
      "entations": 983,
      "Ġfine": 984,
      "ulti": 985,
      "infÃ©r": 986,
      "irt": 987,
      "tuning": 988,
      "infÃ©rence": 989,
      "']": 990,
      "['": 991,
      "tre": 992,
      "Ġave": 993,
      "Ġagg": 994,
      "Ġli": 995,
      "ĠSpe": 996,
      "Ġavec": 997,
      "Ġaggre": 998,
      "gment": 999,
      "pre": 1000,
      "inting": 1001,
      "Ġincre": 1002,
      "ixture": 1003,
      "Ġcheckpointing": 1004,
      "ryption": 1005,
      "gmenter": 1006,
      "28": 1007,
      "gor": 1008,
      "ith": 1009,
      "Ġpermet": 1010,
      "Ġalgor": 1011,
      "Ġunique": 1012,
      "Ġalgorith": 1013,
      "ble": 1014,
      "bst": 1015,
      "ec": 1016,
      "xy": 1017,
      "raction": 1018,
      "Ġabst": 1019,
      "Ġproxy": 1020,
      "Ġisol": 1021,
      "parable": 1022,
      "ĠsupervisÃ©": 1023,
      "Ġabstraction": 1024,
      "chine": 1025,
      "ques": 1026,
      "omati": 1027,
      "Ġprofil": 1028,
      "Ġautomati": 1029,
      "Ġmachine": 1030,
      "Ġvalidation": 1031,
      "Ġautomatique": 1032,
      "ft": 1033,
      "gni": 1034,
      "tation": 1035,
      "transform": 1036,
      "Ġ/": 1037,
      "Ġarchi": 1038,
      "tect": 1039,
      "Ġ11": 1040,
      "Ġcogni": 1041,
      "gration": 1042,
      "Ġsoft": 1043,
      "transformer": 1044,
      "Ġarchitect": 1045,
      "Ġarchitecture": 1046,
      "48": 1047,
      "Ġstep": 1048,
      "ĠĠĠĠĠĠĠ": 1049,
      "ilation": 1050,
      "Ġcompilation": 1051,
      "tics": 1052,
      "mor": 1053,
      "Ġinser": 1054,
      "Ġpoly": 1055,
      "phis": 1056,
      "ĠmatÃ©ri": 1057,
      "morphis": 1058,
      "Ġinsertion": 1059,
      "Ġpolymorphis": 1060,
      "ling": 1061,
      "Ġ:": 1062,
      "Ġsamp": 1063,
      "Ġdepend": 1064,
      "Ġfo": 1065,
      "entraÃ®nement": 1066,
      "Ġsampling": 1067,
      "Ġdependenc": 1068,
      "ob": 1069,
      "ree": 1070,
      "Ġmob": 1071,
      "Ġbo": 1072,
      "090": 1073,
      "38": 1074,
      "action": 1075,
      "layer": 1076,
      "Ġtransaction": 1077,
      "Ġtransformer": 1078,
      "ais": 1079,
      "itor": 1080,
      "Ġrec": 1081,
      "Ġmonitor": 1082,
      "ace": 1083,
      "face": 1084,
      "nchron": 1085,
      "ynchron": 1086,
      "ery": 1087,
      "Ġfe": 1088,
      "apsul": 1089,
      "ĠrÃ©se": 1090,
      "Ġencapsul": 1091,
      "Ġinterface": 1092,
      "Ġasynchron": 1093,
      "Ġencapsulation": 1094,
      "ĠZ": 1095,
      "llable": 1096,
      "ckage": 1097,
      "Ġpackage": 1098,
      "ĠprÃ©cision": 1099,
      "Ġclassification": 1100,
      "Ġadvers": 1101,
      "Ġnullable": 1102,
      "tex": 1103,
      "Ġmute": 1104,
      "Ġcontex": 1105,
      "section": 1106,
      "Ġintersection": 1107,
      "Ġmutex": 1108,
      "TX": 1109,
      "by": 1110,
      "Ġbf": 1111,
      "Ġbits": 1112,
      "ĠRTX": 1113,
      "Ġ3090": 1114,
      "andby": 1115,
      "Ġbitsandby": 1116,
      "Ġbitsandbytes": 1117,
      "lr": 1118,
      "dit": 1119,
      "Ġfil": 1120,
      "Ġaudit": 1121,
      "acc": 1122,
      "velop": 1123,
      "ust": 1124,
      "Ġclust": 1125,
      "Ġsynchron": 1126,
      "Ġclustering": 1127,
      "fo": 1128,
      "Ġtim": 1129,
      "reed": 1130,
      "Ġtun": 1131,
      "ord": 1132,
      "Ġgreed": 1133,
      "Ġaler": 1134,
      "gging": 1135,
      "Ġtimes": 1136,
      "Ġtunnel": 1137,
      "Ġgreedy": 1138,
      "bj": 1139,
      "Ġobj": 1140,
      "config": 1141,
      "den": 1142,
      "dex": 1143,
      "gation": 1144,
      "Ġindex": 1145,
      "gression": 1146,
      "idden": 1147,
      "92": 1148,
      "DT": 1149,
      "ip": 1150,
      "Ġpip": 1151,
      "eline": 1152,
      "Ġconvergence": 1153,
      "Ġprogra": 1154,
      "ĠEDT": 1155,
      "Ġpipeline": 1156,
      "Ġprogram": 1157,
      "ep": 1158,
      "info": 1159,
      "ĠDe": 1160,
      "__": 1161,
      "grÃ©": 1162,
      "ĠagrÃ©": 1163,
      "Ġmodule": 1164,
      "Ġ09": 1165,
      "Ġ201": 1166,
      "erialization": 1167,
      "cri": 1168,
      "nn": 1169,
      "Ġ02": 1170,
      "Ġ08": 1171,
      "Ġdiscri": 1172,
      "Ġdiscrimin": 1173,
      "Ġtri": 1174,
      "Ġcomposition": 1175,
      "Ġdimension": 1176,
      "Ġnucle": 1177,
      "Ġnucleus": 1178,
      "Ġmig": 1179,
      "site": 1180,
      "Ġ05": 1181,
      "atis": 1182,
      "Ġstate": 1183,
      "Ġstatis": 1184,
      "Ġmigration": 1185,
      "diction": 1186,
      "Ġimport": 1187,
      "gine": 1188,
      "Ġengine": 1189,
      "Ġengineering": 1190,
      "20": 1191,
      "urn": 1192,
      "Ġ06": 1193,
      "checkpo": 1194,
      "checkpoint": 1195,
      "tensor": 1196,
      "status": 1197,
      "Ġconcurr": 1198,
      "Ġ07": 1199,
      "unction": 1200,
      "data": 1201,
      "ociation": 1202,
      "Ġ01": 1203,
      "mean": 1204,
      "Ġassociation": 1205,
      "Ġtransfer": 1206,
      "iable": 1207,
      "norm": 1208,
      "ariable": 1209,
      "edge": 1210,
      "Ġvariable": 1211,
      "graph": 1212,
      "Ġinstance": 1213,
      "ids": 1214,
      "input": 1215,
      "Ġ04": 1216,
      "ĠDi": 1217,
      "ow": 1218,
      "Ġsemi": 1219,
      "Ġ03": 1220,
      "Ġclass": 1221,
      "24": 1222,
      "block": 1223,
      "sample": 1224,
      "reate": 1225,
      "Ġcreate": 1226,
      "uter": 1227,
      "Ġoutput": 1228,
      "Ġgrad": 1229,
      "Block": 1230,
      "cto": 1231,
      "ove": 1232,
      "psi": 1233,
      "uary": 1234,
      "Ġ!": 1235,
      "ĠÂ": 1236,
      "esday": 1237,
      "org": 1238,
      "Ġmar": 1239,
      "ril": 1240,
      "amma": 1241,
      "Ġ==": 1242,
      "ĠTh": 1243,
      "pha": 1244,
      "ctob": 1245,
      "psilon": 1246,
      "node": 1247,
      "'])": 1248,
      "('": 1249,
      "dge": 1250,
      "Ġlr": 1251,
      "Ġlab": 1252,
      "Tensor": 1253,
      "39": 1254,
      "current": 1255,
      "26": 1256,
      "tal": 1257,
      "Ġtotal": 1258,
      "46": 1259,
      "Ġsho": 1260,
      "uld": 1261,
      "Ġshould": 1262,
      "ward": 1263,
      "batches": 1264,
      "36": 1265,
      "Ġge": 1266,
      "Ġepoch": 1267,
      "Ġdef": 1268,
      "Ġget": 1269,
      "Adam": 1270,
      "Ġbias": 1271,
      "29": 1272,
      "49": 1273,
      "Ġgate": 1274,
      "Ġ(": 1275,
      "Ġmake": 1276,
      "19": 1277,
      "35": 1278,
      "47": 1279,
      "25": 1280,
      "ffici": 1281,
      "mar": 1282,
      "Ġ@": 1283,
      "ties": 1284,
      "ĠLarge": 1285,
      "quab": 1286,
      "Ġemergent": 1287,
      "Ġremar": 1288,
      "Ġbuil": 1289,
      "Ġexhi": 1290,
      "abili": 1291,
      "ĠÃ©mergent": 1292,
      "Ġcapabili": 1293,
      "Ġsuffici": 1294,
      "Ġgrande": 1295,
      "Ġscale": 1296,
      "ĠcapacitÃ©s": 1297,
      "ĠÃ©chelle": 1298,
      "quables": 1299,
      "Ġremarquables": 1300,
      "Ġbuild": 1301,
      "Ġexhibit": 1302,
      "Ġcapabilities": 1303,
      "Ġsufficient": 1304,
      "Ġ]": 1305,
      "Ġset": 1306,
      "17": 1307,
      "40": 1308,
      "Ġhas": 1309,
      "27": 1310,
      "net": 1311,
      "List": 1312,
      "ente": 1313,
      "ins": 1314,
      "Ġmom": 1315,
      "entum": 1316,
      "Ġrema": 1317,
      "ĠSto": 1318,
      "Ġreste": 1319,
      "Ġstochas": 1320,
      "optimisation": 1321,
      "chastic": 1322,
      "Ġdescent": 1323,
      "Ġdescente": 1324,
      "Ġdominant": 1325,
      "Ġdominante": 1326,
      "Ġmomentum": 1327,
      "Ġremains": 1328,
      "ĠStochastic": 1329,
      "Ġstochastique": 1330,
      "siteur": 1331,
      "Ġcomposer": 1332,
      "Ġcompositeur": 1333,
      "Ġhyperdimensional": 1334,
      "Ġhyperdimensionnel": 1335,
      "37": 1336,
      "aires": 1337,
      "earch": 1338,
      "lin": 1339,
      "nex": 1340,
      "plin": 1341,
      "ont": 1342,
      "esidual": 1343,
      "Ġsont": 1344,
      "Ġare": 1345,
      "Ġarti": 1346,
      "sidu": 1347,
      "fique": 1348,
      "ctions": 1349,
      "Ġconne": 1350,
      "Ġconnex": 1351,
      "ficial": 1352,
      "ĠResidual": 1353,
      "ĠrÃ©sidu": 1354,
      "ciplin": 1355,
      "ired": 1356,
      "Ġtransforme": 1357,
      "Ġtransforms": 1358,
      "Ġtopk": 1359,
      "Ġmax": 1360,
      "ions": 1361,
      "ĠArti": 1362,
      "cessaires": 1363,
      "Ġresearch": 1364,
      "Ġintelligence": 1365,
      "Ġrequired": 1366,
      "Ġdisciplin": 1367,
      "ficielle": 1368,
      "Ġmodern": 1369,
      "Ġmoderne": 1370,
      "Ġscientific": 1371,
      "Ġscientifique": 1372,
      "intelligence": 1373,
      "ĠnÃ©cessaires": 1374,
      "Ġartificielle": 1375,
      "Ġconnections": 1376,
      "Ġconnexions": 1377,
      "ĠrÃ©siduelles": 1378,
      "ĠArtificial": 1379,
      "Ġdisciplines": 1380,
      "56": 1381,
      "Ve": 1382,
      "ielles": 1383,
      "rent": 1384,
      "Ġve": 1385,
      "ĠVe": 1386,
      "Ġbases": 1387,
      "Ã¨rent": 1388,
      "ights": 1389,
      "weights": 1390,
      "dimensional": 1391,
      "ĠaccÃ©lÃ¨rent": 1392,
      "Ġembeddings": 1393,
      "ctorielles": 1394,
      "Ġdatabases": 1395,
      "Ġvectorielles": 1396,
      "ĠVector": 1397,
      "User": 1398,
      "drement": 1399,
      "eff": 1400,
      "fit": 1401,
      "mall": 1402,
      "pression": 1403,
      "ondrement": 1404,
      "Ġdropout": 1405,
      "rapp": 1406,
      "Ġsmall": 1407,
      "Ġtail": 1408,
      "Ġregular": 1409,
      "llap": 1410,
      "compression": 1411,
      "ĠrÃ©gular": 1412,
      "Ġperte": 1413,
      "ĠÃ©vi": 1414,
      "unt": 1415,
      "Ġcollap": 1416,
      "Ġcount": 1417,
      "Ġcompression": 1418,
      "ĠprÃ©vi": 1419,
      "ĠModel": 1420,
      "ĠDropout": 1421,
      "Ġsurapp": 1422,
      "Ġquality": 1423,
      "Ġoverfit": 1424,
      "Ġauxiliary": 1425,
      "Ġauxiliaire": 1426,
      "Ġsignificant": 1427,
      "Ġsignificative": 1428,
      "Ġdatasets": 1429,
      "effondrement": 1430,
      "Ġtaille": 1431,
      "Ġregularization": 1432,
      "ĠrÃ©gularisation": 1433,
      "ĠÃ©vite": 1434,
      "Ġcollapse": 1435,
      "ĠprÃ©vient": 1436,
      "Ġsurapprentissage": 1437,
      "Ġoverfitting": 1438,
      "ive": 1439,
      "vail": 1440,
      "cedure": 1441,
      "Ġepisodi": 1442,
      "Ġnive": 1443,
      "Ġconver": 1444,
      "Ġprocedure": 1445,
      "Ġwork": 1446,
      "ĠÃ©pisodi": 1447,
      "Ġthree": 1448,
      "Ġ2026": 1449,
      "Ġtravail": 1450,
      "Ġtrois": 1451,
      "Ġgrouping": 1452,
      "ĠhiÃ©rarchique": 1453,
      "Ġepisodic": 1454,
      "Ġniveaux": 1455,
      "Ġconvert": 1456,
      "Ġworking": 1457,
      "ĠÃ©pisodique": 1458,
      "iences": 1459,
      "mes": 1460,
      "pÃ©ri": 1461,
      "ste": 1462,
      "util": 1463,
      "Ġ-": 1464,
      "onaliz": 1465,
      "erce": 1466,
      "Ġplat": 1467,
      "stÃ¨": 1468,
      "expÃ©ri": 1469,
      "forms": 1470,
      "alisent": 1471,
      "Ġexperiences": 1472,
      "Ġsyste": 1473,
      "ĠsystÃ¨": 1474,
      "ender": 1475,
      "commerce": 1476,
      "commender": 1477,
      "Ġutilisateur": 1478,
      "onnalisent": 1479,
      "Ġpersonaliz": 1480,
      "Ġpersonnalisent": 1481,
      "ĠRecommender": 1482,
      "Ġrecommandation": 1483,
      "Ġauthentication": 1484,
      "utils": 1485,
      "Ġplatforms": 1486,
      "expÃ©rience": 1487,
      "Ġsystems": 1488,
      "ĠsystÃ¨mes": 1489,
      "Ġpersonalize": 1490,
      "Ġlock": 1491,
      "Ġ30": 1492,
      "Ġfind": 1493,
      "Ġdelete": 1494,
      "af": 1495,
      "forcement": 1496,
      "iore": 1497,
      "mÃ©l": 1498,
      "pk": 1499,
      "uels": 1500,
      "Ġren": 1501,
      "indi": 1502,
      "Ġsaf": 1503,
      "ĠamÃ©l": 1504,
      "alig": 1505,
      "ants": 1506,
      "roves": 1507,
      "ety": 1508,
      "edback": 1509,
      "Ġ2030": 1510,
      "ĠsÃ©cur": 1511,
      "topk": 1512,
      "Ġvirt": 1513,
      "Ġ2025": 1514,
      "Ġimproves": 1515,
      "ĠReinforcement": 1516,
      "Ġassistant": 1517,
      "Ġassistants": 1518,
      "Ġfeedback": 1519,
      "Ġrenforcement": 1520,
      "indices": 1521,
      "Ġsafety": 1522,
      "ĠamÃ©liore": 1523,
      "alignement": 1524,
      "ĠsÃ©curitÃ©": 1525,
      "Ġvirtuels": 1526,
      "aque": 1527,
      "cs": 1528,
      "hort": 1529,
      "haque": 1530,
      "jo": 1531,
      "mi": 1532,
      "nalise": 1533,
      "ruit": 1534,
      "sis": 1535,
      "ux": 1536,
      "viter": 1537,
      "enaliz": 1538,
      "Ã©nalise": 1539,
      "Ġdans": 1540,
      "Ġsentiment": 1541,
      "Ġshort": 1542,
      "Ġpenaliz": 1543,
      "ĠpÃ©nalise": 1544,
      "Ġajo": 1545,
      "Ġlarge": 1546,
      "Ġcan": 1547,
      "Ġchaque": 1548,
      "analy": 1549,
      "anciation": 1550,
      "Ġeight": 1551,
      "Ġemotions": 1552,
      "urts": 1553,
      "Ġdeux": 1554,
      "Ġhuit": 1555,
      "dia": 1556,
      "Ġbruit": 1557,
      "rics": 1558,
      "ĠSentiment": 1559,
      "ĠÃ©motions": 1560,
      "ĠÃ©viter": 1561,
      "raint": 1562,
      "Ġcourts": 1563,
      "Ġparmi": 1564,
      "Ġselec": 1565,
      "max": 1566,
      "Ġtexts": 1567,
      "Ġtextes": 1568,
      "oisy": 1569,
      "Ġsocial": 1570,
      "Ġgenerate": 1571,
      "Ġadds": 1572,
      "Ġinstanciation": 1573,
      "ĠNoisy": 1574,
      "Ġmetrics": 1575,
      "ĠsÃ©lectionne": 1576,
      "Ġanalysis": 1577,
      "Ġconstraint": 1578,
      "Ġgrands": 1579,
      "Ġtrop": 1580,
      "Ġgroupement": 1581,
      "Ġnoise": 1582,
      "Ġnoisy": 1583,
      "Ġclassifie": 1584,
      "Ġclassifies": 1585,
      "Ġgaussien": 1586,
      "Ġgaussian": 1587,
      "Ġtwo": 1588,
      "Ġmedia": 1589,
      "Ġaggregate": 1590,
      "Ġsoftmax": 1591,
      "Ġsentiments": 1592,
      "Ġpenalizes": 1593,
      "Ġajoute": 1594,
      "analyse": 1595,
      "Ġselects": 1596,
      ").": 1597,
      "ads": 1598,
      "Ġtier": 1599,
      "Ġreads": 1600,
      "Ġfunction": 1601,
      "Ã¨les": 1602,
      "Ġlect": 1603,
      "ĠparallÃ¨les": 1604,
      "Ġvalidate": 1605,
      "Ġchiffrement": 1606,
      "Ġprofilage": 1607,
      "Ġlectures": 1608,
      "Mod": 1609,
      "mask": 1610,
      "requ": 1611,
      "alization": 1612,
      "Ġencryption": 1613,
      "Ġ40": 1614,
      "Ġsous": 1615,
      "Ġnormalization": 1616,
      "Ġapplies": 1617,
      "Ġapplique": 1618,
      "ĠsÃ©quence": 1619,
      "Module": 1620,
      "requÃªte": 1621,
      "sum": 1622,
      "vra": 1623,
      "erence": 1624,
      "ison": 1625,
      "Ġ50": 1626,
      "ĠsÃ©maphore": 1627,
      "Ġdifference": 1628,
      "Ġlivra": 1629,
      "Ġlivraison": 1630,
      "10": 1631,
      "58": 1632,
      "ĠmÃ©th": 1633,
      "ĠmÃ©thode": 1634,
      "bog": 1635,
      "her": 1636,
      "esting": 1637,
      "Ġtesting": 1638,
      "itance": 1639,
      "Ġinher": 1640,
      "ĠdÃ©bog": 1641,
      "Ġinheritance": 1642,
      "ĠdÃ©bogage": 1643,
      "flo": 1644,
      "mati": 1645,
      "pÃ©": 1646,
      "tri": 1647,
      "Ġver": 1648,
      "Ġrange": 1649,
      "Ã©s": 1650,
      "Ġdra": 1651,
      "Ġdop": 1652,
      "ĠspÃ©": 1653,
      "ators": 1654,
      "dict": 1655,
      "ckÃ©e": 1656,
      "alisÃ©s": 1657,
      "cialisÃ©s": 1658,
      "cally": 1659,
      "Ġ2024": 1660,
      "ĠmÃ©tri": 1661,
      "Ã©rateurs": 1662,
      "ĠstockÃ©e": 1663,
      "Ġperformances": 1664,
      "ĠaccÃ©lÃ©rateurs": 1665,
      "Ġaccelerators": 1666,
      "Ġdatabase": 1667,
      "cialized": 1668,
      "Ġthroughput": 1669,
      "ĠSpecialized": 1670,
      "ĠmatÃ©riels": 1671,
      "Ġpolymorphisme": 1672,
      "Ġboost": 1673,
      "Ġcontext": 1674,
      "float": 1675,
      "matically": 1676,
      "Ġverrou": 1677,
      "Ġdramatically": 1678,
      "Ġdopent": 1679,
      "ĠspÃ©cialisÃ©s": 1680,
      "ĠmÃ©trique": 1681,
      "bas": 1682,
      "cross": 1683,
      "ges": 1684,
      "ima": 1685,
      "iteur": 1686,
      "mage": 1687,
      "mÃ¨": 1688,
      "py": 1689,
      "ends": 1690,
      "esis": 1691,
      "realis": 1692,
      "Ġpho": 1693,
      "Ġphot": 1694,
      "ropy": 1695,
      "enty": 1696,
      "entropy": 1697,
      "ingt": 1698,
      "Ġproduit": 1699,
      "Ġproduces": 1700,
      "Ġroute": 1701,
      "resolution": 1702,
      "Ã¨se": 1703,
      "ĠrÃ©sul": 1704,
      "alistes": 1705,
      "torealis": 1706,
      "Ġvingt": 1707,
      "ĠparamÃ¨": 1708,
      "Ġclasse": 1709,
      "ffusion": 1710,
      "Ġactif": 1711,
      "tats": 1712,
      "Ġimage": 1713,
      "Ġrecommends": 1714,
      "Ġcheckpoint": 1715,
      "Ġunion": 1716,
      "Ġmoniteur": 1717,
      "Ġrecommande": 1718,
      "Ġtwenty": 1719,
      "Ġdiffusion": 1720,
      "Ġsynthesis": 1721,
      "ĠsynthÃ¨se": 1722,
      "orÃ©alistes": 1723,
      "Ġattribut": 1724,
      "ĠdÃ©pendance": 1725,
      "ĠDiffusion": 1726,
      "Ġoutputs": 1727,
      "based": 1728,
      "images": 1729,
      "Ġphotorealis": 1730,
      "ĠphotorÃ©alistes": 1731,
      "Ġrouteur": 1732,
      "ĠrÃ©sultats": 1733,
      "ĠparamÃ¨tre": 1734,
      "Ġphotorealistic": 1735,
      "iement": 1736,
      "torch": 1737,
      "tary": 1738,
      "ural": 1739,
      "utif": 1740,
      "vol": 1741,
      "zation": 1742,
      "ondition": 1743,
      "erves": 1744,
      "Ġpres": 1745,
      "isms": 1746,
      "Ġmask": 1747,
      "anisms": 1748,
      "chanisms": 1749,
      "atural": 1750,
      "figu": 1751,
      "Ġnature": 1752,
      "Ġnatural": 1753,
      "Ġrevolution": 1754,
      "Ġconvol": 1755,
      "Ġconfigu": 1756,
      "encodage": 1757,
      "ĠrÃ©volution": 1758,
      "Ġpost": 1759,
      "ĠTransform": 1760,
      "atif": 1761,
      "ĠdÃ©plo": 1762,
      "serve": 1763,
      "Ġautore": 1764,
      "ĠautorÃ©": 1765,
      "Ġencoding": 1766,
      "ĠprÃ©serve": 1767,
      "eurs": 1768,
      "Ġtransformeurs": 1769,
      "Ġone": 1770,
      "Ġont": 1771,
      "ĠCondition": 1772,
      "ĠRotary": 1773,
      "nelle": 1774,
      "Ġtext": 1775,
      "Ġtexte": 1776,
      "Ġtraite": 1777,
      "ĠPost": 1778,
      "gressif": 1779,
      "Ġlonger": 1780,
      "Ġpositional": 1781,
      "Ġpositionnel": 1782,
      "Ġinteger": 1783,
      "Ġintegration": 1784,
      "lates": 1785,
      "Ġanalytics": 1786,
      "Ġsequences": 1787,
      "Ġconditionnelle": 1788,
      "ĠdÃ©codage": 1789,
      "Ġscaling": 1790,
      "Ġmechanisms": 1791,
      "Ġprocessing": 1792,
      "ĠsÃ©quences": 1793,
      "Ġattribute": 1794,
      "Ġexploits": 1795,
      "Ġexploite": 1796,
      "Ġquantification": 1797,
      "Ġquantization": 1798,
      "Ġextrapol": 1799,
      "Ġextrapolates": 1800,
      "Ġrotatif": 1801,
      "Ġpreserves": 1802,
      "Ġnaturel": 1803,
      "Ġrevolutionized": 1804,
      "Ġconvolutif": 1805,
      "Ġconfiguration": 1806,
      "ĠrÃ©volutionnÃ©": 1807,
      "ĠTransformers": 1808,
      "ĠdÃ©ploiement": 1809,
      "Ġautoregressive": 1810,
      "ĠautorÃ©gressif": 1811,
      "ĠConditional": 1812,
      "Ġtraitement": 1813,
      "44": 1814,
      "cteurs": 1815,
      "jor": 1816,
      "lation": 1817,
      "ale": 1818,
      "als": 1819,
      "ducteurs": 1820,
      "Ġpair": 1821,
      "Ġtranslat": 1822,
      "Ġtranslation": 1823,
      "Ġmajor": 1824,
      "Ġhumain": 1825,
      "Ġtraduction": 1826,
      "Ġtraducteurs": 1827,
      "ĠNeural": 1828,
      "Ġrivalise": 1829,
      "Ġrivals": 1830,
      "Ġneuronale": 1831,
      "Ġpairs": 1832,
      "Ġtranslators": 1833,
      "Ġhumains": 1834,
      "lus": 1835,
      "pid": 1836,
      "uch": 1837,
      "yers": 1838,
      "Ġque": 1839,
      "erm": 1840,
      "Ġplus": 1841,
      "Ġterm": 1842,
      "Ġremo": 1843,
      "aster": 1844,
      "Ġfaster": 1845,
      "Ġrotat": 1846,
      "Ġlayers": 1847,
      "Ġcouch": 1848,
      "(),": 1849,
      "Ġthan": 1850,
      "meters": 1851,
      "Ġactives": 1852,
      "Ġand": 1853,
      "Ġrapid": 1854,
      "Ġreport": 1855,
      "parameters": 1856,
      "Ġtableau": 1857,
      "Ġparallelization": 1858,
      "Ġrotate": 1859,
      "Ġremoves": 1860,
      "Ġrotates": 1861,
      "Ġcouches": 1862,
      "Ġrapide": 1863,
      "=-": 1864,
      "fon": 1865,
      "feu": 1866,
      "ies": 1867,
      "nent": 1868,
      "sentations": 1869,
      "train": 1870,
      "tention": 1871,
      "tÃª": 1872,
      "tures": 1873,
      "Ġdist": 1874,
      "Ġlig": 1875,
      "Ġmulti": 1876,
      "attention": 1877,
      "Ġinput": 1878,
      "Ġbase": 1879,
      "rÃ©sentations": 1880,
      "rialisation": 1881,
      "Ġcontrain": 1882,
      "Ġprofon": 1883,
      "resentations": 1884,
      "head": 1885,
      "Ġpare": 1886,
      "ĠsÃ©rialisation": 1887,
      "ential": 1888,
      "Ġcapture": 1889,
      "Ġcaptures": 1890,
      "ĠMulti": 1891,
      "Ġlong": 1892,
      "Ġappren": 1893,
      "ĠreprÃ©sentations": 1894,
      "Ġrepresentations": 1895,
      "Ġnetworks": 1896,
      "Ġsequential": 1897,
      "ĠhiÃ©rarchiques": 1898,
      "backward": 1899,
      "ĠdÃ©pendances": 1900,
      "Ġneurones": 1901,
      "Ġdependencies": 1902,
      "ĠrÃ©seaux": 1903,
      "ĠDeep": 1904,
      "tÃªtes": 1905,
      "Ġdistances": 1906,
      "Ġligne": 1907,
      "Ġcontrainte": 1908,
      "Ġprofonds": 1909,
      "Ġapprennent": 1910,
      "13": 1911,
      "59": 1912,
      "cul": 1913,
      "mut": 1914,
      "ot": 1915,
      "pr": 1916,
      "Ġcal": 1917,
      "Ġmixture": 1918,
      "asing": 1919,
      "Ġfore": 1920,
      "load": 1921,
      "ign": 1922,
      "Ġcommut": 1923,
      "empre": 1924,
      "Ġcost": 1925,
      "Ġaugmenter": 1926,
      "ĠMixture": 1927,
      "Ġinterpre": 1928,
      "augmenter": 1929,
      "Ġcapacity": 1930,
      "Ġprix": 1931,
      "Ġincreases": 1932,
      "Ġincreasing": 1933,
      "Ġalgorithm": 1934,
      "Ġfoot": 1935,
      "print": 1936,
      "Ġcalcul": 1937,
      "Ġforeign": 1938,
      "Ġcommutateur": 1939,
      "empreinte": 1940,
      "Ġinterpretation": 1941,
      "Ġfootprint": 1942,
      "bedding": 1943,
      "eparable": 1944,
      "iver": 1945,
      "ner": 1946,
      "oc": 1947,
      "pro": 1948,
      "tte": 1949,
      "ws": 1950,
      "Ã©ment": 1951,
      "cette": 1952,
      "Ġrecette": 1953,
      "Ġhidden": 1954,
      "lows": 1955,
      "ĠSeparable": 1956,
      "embedding": 1957,
      "ĠsÃ©parable": 1958,
      "ĠprÃ©pro": 1959,
      "Ġallows": 1960,
      "Ġdeliver": 1961,
      "entraÃ®ner": 1962,
      "Ġalgorithme": 1963,
      "Ġisolation": 1964,
      "ĠisolÃ©ment": 1965,
      "ĠprÃ©production": 1966,
      "Ġdelivery": 1967,
      "')": 1968,
      "88": 1969,
      "Batch": 1970,
      "bqu": 1971,
      "tive": 1972,
      "Ġff": 1973,
      "Ġune": 1974,
      "Ġconvolution": 1975,
      "ĠclÃ©": 1976,
      "ronment": 1977,
      "vironment": 1978,
      "Ġsubqu": 1979,
      "Ġunsupervised": 1980,
      "Ġenvironment": 1981,
      "Ġcognitif": 1982,
      "Ġcognitive": 1983,
      "Ġconvolutional": 1984,
      "Ġsubquery": 1985,
      "Map": 1986,
      "Qu": 1987,
      "gi": 1988,
      "Ġke": 1989,
      "Ġinfo": 1990,
      "Ġbord": 1991,
      "Ġfusion": 1992,
      "Ġ21": 1993,
      "Ġlogi": 1994,
      "Ġrow": 1995,
      "ĠrÃ©inforcement": 1996,
      "ciel": 1997,
      "eue": 1998,
      "pport": 1999,
      "Ġsemaphore": 2000,
      "Ġrapport": 2001,
      "Ġadversaire": 2002,
      "Ġdiscriminative": 2003,
      "Queue": 2004,
      "Ġkey": 2005,
      "Ġlogiciel": 2006,
      "aces": 2007,
      "ffic": 2008,
      "gers": 2009,
      "ile": 2010,
      "ige": 2011,
      "lum": 2012,
      "man": 2013,
      "prÃ©": 2014,
      "wit": 2015,
      "wall": 2016,
      "Ġfi": 2017,
      "enÃª": 2018,
      "Ã©gers": 2019,
      "rewall": 2020,
      "Ġswit": 2021,
      "ĠpÃ©ri": 2022,
      "Ġlight": 2023,
      "ĠlÃ©gers": 2024,
      "orization": 2025,
      "ality": 2026,
      "Ġet": 2027,
      "Ġeffic": 2028,
      "Ġdevelop": 2029,
      "Ġdeman": 2030,
      "ĠfenÃª": 2031,
      "Ġexige": 2032,
      "iles": 2033,
      "Ġwind": 2034,
      "Ġcolum": 2035,
      "Ġcomputer": 2036,
      "phÃ©ri": 2037,
      "tering": 2038,
      "Ġoptimized": 2039,
      "ĠinterprÃ©": 2040,
      "vice": 2041,
      "Ġauthorization": 2042,
      "ĠOn": 2043,
      "device": 2044,
      "Ġchips": 2045,
      "Ġmobile": 2046,
      "Ġmobiles": 2047,
      "Ġfiltering": 2048,
      "Ġsynchronization": 2049,
      "Ġdimensionality": 2050,
      "Ġfirewall": 2051,
      "Ġswitch": 2052,
      "ĠpÃ©riphÃ©ri": 2053,
      "Ġlightweight": 2054,
      "Ġefficaces": 2055,
      "Ġdevelopment": 2056,
      "Ġdemands": 2057,
      "ĠfenÃªtre": 2058,
      "Ġwindow": 2059,
      "Ġcolumn": 2060,
      "ĠinterprÃ©tation": 2061,
      "ĠpÃ©riphÃ©riques": 2062,
      "Kind": 2063,
      "Sample": 2064,
      "aine": 2065,
      "ech": 2066,
      "eight": 2067,
      "ocal": 2068,
      "sance": 2069,
      "val": 2070,
      "§ais": 2071,
      "Ã§ais": 2072,
      "Ġserialization": 2073,
      "teint": 2074,
      "ational": 2075,
      "Ġreach": 2076,
      "dio": 2077,
      "Ġfran": 2078,
      "Ġconvers": 2079,
      "Ġvocal": 2080,
      "Ġweight": 2081,
      "Ġauto": 2082,
      "Ġaudio": 2083,
      "Ġparity": 2084,
      "nition": 2085,
      "ĠFren": 2086,
      "Ġhumaine": 2087,
      "ognition": 2088,
      "Ġatteint": 2089,
      "onnais": 2090,
      "Ġdeletion": 2091,
      "ĠSpeech": 2092,
      "Ġrecognition": 2093,
      "Ġreconnais": 2094,
      "Ġasynchrone": 2095,
      "Ġobjet": 2096,
      "Ġreaches": 2097,
      "ĠfranÃ§ais": 2098,
      "Ġconversational": 2099,
      "Ġvocale": 2100,
      "ĠFrench": 2101,
      "Ġreconnaissance": 2102,
      "Data": 2103,
      "Gra": 2104,
      "bli": 2105,
      "ous": 2106,
      "oth": 2107,
      "prentissage": 2108,
      "yment": 2109,
      "tiqu": 2110,
      "Ã©es": 2111,
      "orisation": 2112,
      "eled": 2113,
      "Ġdeplo": 2114,
      "etÃ©es": 2115,
      "Ġexamp": 2116,
      "ĠSupervis": 2117,
      "Ã¨que": 2118,
      "apprentissage": 2119,
      "cessite": 2120,
      "ĠÃ©tiqu": 2121,
      "Ġautorisation": 2122,
      "Ã©lisation": 2123,
      "ĠparallÃ©lisation": 2124,
      "Ġrequires": 2125,
      "Ġmaterial": 2126,
      "Ġbibli": 2127,
      "ĠnÃ©cessite": 2128,
      "Ġmonitoring": 2129,
      "Ġasynchronous": 2130,
      "Ġlabeled": 2131,
      "Graph": 2132,
      "othÃ¨que": 2133,
      "Ġdeployment": 2134,
      "Ġexamples": 2135,
      "ĠSupervised": 2136,
      "ĠÃ©tiquetÃ©es": 2137,
      "Ġmaterialized": 2138,
      "ĠbibliothÃ¨que": 2139,
      "54": 2140,
      "76": 2141,
      "Model": 2142,
      "PU": 2143,
      "Stat": 2144,
      "Type": 2145,
      "Ã©tat": 2146,
      "Ġsor": 2147,
      "orte": 2148,
      "iseur": 2149,
      "Ġmix": 2150,
      "atre": 2151,
      "Ġnati": 2152,
      "Ġnative": 2153,
      "Ġfois": 2154,
      "llonn": 2155,
      "antillonn": 2156,
      "Ġquatre": 2157,
      "ĠMix": 2158,
      "Ġprecision": 2159,
      "ortÃ©e": 2160,
      "ĠGPU": 2161,
      "ĠAdam": 2162,
      "Ġdecoder": 2163,
      "ĠrequÃªte": 2164,
      "vely": 2165,
      "Ġsupporte": 2166,
      "ĠsupportÃ©e": 2167,
      "optimiseur": 2168,
      "ĠÃ©chantillonn": 2169,
      "Ġ+=": 2170,
      "Ġauthentification": 2171,
      "Ġfour": 2172,
      "Status": 2173,
      "Ġsorting": 2174,
      "Ġmixte": 2175,
      "Ġnatively": 2176,
      "Ġnativement": 2177,
      "ĠMixed": 2178,
      "Ġsupported": 2179,
      "ĠÃ©chantillonnage": 2180,
      "22": 2181,
      "bra": 2182,
      "run": 2183,
      "tÃ©": 2184,
      "onction": 2185,
      "Ġtrun": 2186,
      "ĠintÃ©": 2187,
      "Ġfonction": 2188,
      "Ġmodification": 2189,
      "Ġlogging": 2190,
      "ĠdÃ©chi": 2191,
      "antiation": 2192,
      "Ġencodeur": 2193,
      "Ġinstantiation": 2194,
      "Ġanalyse": 2195,
      "Ġlibra": 2196,
      "Ġdependency": 2197,
      "Ġtruncation": 2198,
      "ĠintÃ©gration": 2199,
      "ĠdÃ©chiffrement": 2200,
      "Ġlibrary": 2201,
      "32": 2202,
      "cution": 2203,
      "sel": 2204,
      "Ã©cution": 2205,
      "arial": 2206,
      "ĠexÃ©cution": 2207,
      "vision": 2208,
      "Ġdivision": 2209,
      "Ġoptimisation": 2210,
      "Ġquery": 2211,
      "Ġconstante": 2212,
      "Ġadversarial": 2213,
      "Ġalerte": 2214,
      "Ġalerting": 2215,
      "Ġstatistics": 2216,
      "self": 2217,
      "34": 2218,
      "bu": 2219,
      "ew": 2220,
      "iew": 2221,
      "Ġdebu": 2222,
      "ĠrÃ©gression": 2223,
      "Ġview": 2224,
      "Ġdecryption": 2225,
      "Ġresidual": 2226,
      "Ġconstant": 2227,
      "Ġsuppression": 2228,
      "Ġjoin": 2229,
      "ĠagrÃ©gation": 2230,
      "Ġdebugging": 2231,
      "Config": 2232,
      "Sta": 2233,
      "five": 2234,
      "Ġreduction": 2235,
      "Ġregression": 2236,
      "ĠTraining": 2237,
      "Ġthirt": 2238,
      "maire": 2239,
      "Ã©rer": 2240,
      "ĠaccÃ©lÃ©rer": 2241,
      "Ġsupervised": 2242,
      "Ġprimaire": 2243,
      "Ġaggregation": 2244,
      "Stack": 2245,
      "Ġthirty": 2246,
      "Layer": 2247,
      "St": 2248,
      "init": 2249,
      "red": 2250,
      "alisÃ©e": 2251,
      "ĠdÃ©velop": 2252,
      "pement": 2253,
      "inture": 2254,
      "Ġstored": 2255,
      "trage": 2256,
      "Ġjointure": 2257,
      "ĠmatÃ©rialisÃ©e": 2258,
      "Ġpolymorphism": 2259,
      "ĠrÃ©seau": 2260,
      "Ġfiltrage": 2261,
      "Ġprogramme": 2262,
      "State": 2263,
      "ĠdÃ©veloppement": 2264,
      "bo": 2265,
      "hbo": 2266,
      "mary": 2267,
      "sÃ©ri": 2268,
      "Ġdas": 2269,
      "Ġtensor": 2270,
      "ĠrÃ©duction": 2271,
      "ĠdÃ©sÃ©ri": 2272,
      "Ġprimary": 2273,
      "Ġsynchronisation": 2274,
      "Ġconcurrence": 2275,
      "hboard": 2276,
      "Ġdashboard": 2277,
      "ĠdÃ©sÃ©rialisation": 2278,
      "77": 2279,
      "cÃ©": 2280,
      "ect": 2281,
      "gat": 2282,
      "gÃ¨": 2283,
      "len": 2284,
      "tran": 2285,
      "ucle": 2286,
      "Ġtest": 2287,
      "cheur": 2288,
      "ĠprocÃ©": 2289,
      "Ġexec": 2290,
      "ĠÃ©tran": 2291,
      "ĠdÃ©clen": 2292,
      "Ġprofiling": 2293,
      "Ġboucle": 2294,
      "Ġobject": 2295,
      "ĠagrÃ©gat": 2296,
      "gÃ¨re": 2297,
      "ĠprocÃ©dure": 2298,
      "Ġexecution": 2299,
      "ĠÃ©trangÃ¨re": 2300,
      "ĠdÃ©clencheur": 2301,
      "In": 2302,
      "turn": 2303,
      "Ġx": 2304,
      "Ġord": 2305,
      "inateur": 2306,
      "Ġtype": 2307,
      "itage": 2308,
      "Ġreturn": 2309,
      "ĠhÃ©r": 2310,
      "Ġblock": 2311,
      "Ġprediction": 2312,
      "Info": 2313,
      "Ġordinateur": 2314,
      "ĠhÃ©ritage": 2315,
      "cature": 2316,
      "pn": 2317,
      "ue": 2318,
      "Ġtron": 2319,
      "Ġvpn": 2320,
      "Ġvue": 2321,
      "Ġcolon": 2322,
      "ĠprÃ©diction": 2323,
      "Ġgenerative": 2324,
      "Ġsoftware": 2325,
      "Ġtroncature": 2326,
      "Ġcolonne": 2327,
      "Ġversion": 2328,
      "odeur": 2329,
      "().": 2330,
      "Ġsequence": 2331,
      "ĠdÃ©codeur": 2332,
      "577": 2333,
      "Node": 2334,
      "Ver": 2335,
      "Ġmas": 2336,
      "Ġnn": 2337,
      "168": 2338,
      "Ġjourn": 2339,
      "Version": 2340,
      "Ġmasque": 2341,
      "Ġjournalisation": 2342,
      "718": 2343,
      "To": 2344,
      "ill": 2345,
      "Ġsample": 2346,
      "Ġreinforcement": 2347,
      "Ġconfig": 2348,
      "veill": 2349,
      "Ġdeserialization": 2350,
      "Ġsurveill": 2351,
      "Ġcontexte": 2352,
      "Token": 2353,
      "Ġsurveillance": 2354,
      "414": 2355,
      "78": 2356,
      "hidden": 2357,
      "ĠrÃ©current": 2358,
      "gger": 2359,
      "Ġtrigger": 2360,
      "53": 2361,
      "70": 2362,
      "Ġloop": 2363,
      "159": 2364,
      "Ġstatistique": 2365,
      "11": 2366,
      "ency": 2367,
      "Ġstatus": 2368,
      "Ġdiscriminant": 2369,
      "Ġconcurrency": 2370,
      "nal": 2371,
      "ratif": 2372,
      "Ġedge": 2373,
      "Ġ192": 2374,
      "Ġ127": 2375,
      "ĠgÃ©nÃ©ratif": 2376,
      "Ġdimensionnal": 2377,
      "ĠdimensionnalitÃ©": 2378,
      "Beta": 2379,
      "Wed": 2380,
      "br": 2381,
      "edi": 2382,
      "ebr": 2383,
      "fr": 2384,
      "io": 2385,
      "lpha": 2386,
      "nesday": 2387,
      "out": 2388,
      "pte": 2389,
      "pÃ©ra": 2390,
      "pril": 2391,
      "sday": 2392,
      "uin": 2393,
      "une": 2394,
      "ugu": 2395,
      "uesday": 2396,
      "vri": 2397,
      "ww": 2398,
      "Ġ\"": 2399,
      "Ġ#": 2400,
      "Ġ$": 2401,
      "Ġ%": 2402,
      "Ġ&": 2403,
      "Ġ'": 2404,
      "Ġ)": 2405,
      "Ġ,": 2406,
      "Ġ;": 2407,
      "Ġ?": 2408,
      "Ġ[": 2409,
      "Ġ\\": 2410,
      "Ġ^": 2411,
      "Ġ`": 2412,
      "Ġ{": 2413,
      "Ġ|": 2414,
      "Ġ}": 2415,
      "Ġ~": 2416,
      "ĠBeta": 2417,
      "ĠWed": 2418,
      "onday": 2419,
      "ercre": 2420,
      "redi": 2421,
      "Ġsam": 2422,
      "Ġaout": 2423,
      "Ġlun": 2424,
      "tember": 2425,
      "Ġmercre": 2426,
      "anvi": 2427,
      "anche": 2428,
      "anuary": 2429,
      "elta": 2430,
      "atur": 2431,
      "let": 2432,
      "cember": 2433,
      "cembre": 2434,
      "Ġeta": 2435,
      "Ġepsilon": 2436,
      "ursday": 2437,
      "Ġnove": 2438,
      "Ġdecembre": 2439,
      "Ġbeta": 2440,
      "Ġgamma": 2441,
      "riday": 2442,
      "Ġoctob": 2443,
      "ĠSun": 2444,
      "ĠSep": 2445,
      "ĠSatur": 2446,
      "Ġ2050": 2447,
      "ĠTuesday": 2448,
      "Ġvend": 2449,
      "uly": 2450,
      "Ġwww": 2451,
      "0000": 2452,
      "Ġhttp": 2453,
      "Ġsepte": 2454,
      "ĠMay": 2455,
      "ĠMarch": 2456,
      "ĠMonday": 2457,
      "Ġmai": 2458,
      "eudi": 2459,
      "Ġtheta": 2460,
      "Ġjuil": 2461,
      "Ġjuin": 2462,
      "Ġjanvi": 2463,
      "Ġjeudi": 2464,
      "Ġ500": 2465,
      "ĠFebr": 2466,
      "ĠFriday": 2467,
      "Ġalpha": 2468,
      "ĠDelta": 2469,
      "ĠGamma": 2470,
      "ĠAlpha": 2471,
      "ĠApril": 2472,
      "ĠAugu": 2473,
      "Ġdelta": 2474,
      "Ġadmin": 2475,
      "ĠtempÃ©ra": 2476,
      "Ġdimanche": 2477,
      "ĠNove": 2478,
      "14159": 2479,
      "ĠEta": 2480,
      "ĠEpsilon": 2481,
      "Ġ1000": 2482,
      "Ġ1000000": 2483,
      "ĠâĤ©": 2484,
      "ĠâĤ¬": 2485,
      "ĠâĤ¹": 2486,
      "ĠâĤ½": 2487,
      "Ġavril": 2488,
      "Ġzeta": 2489,
      "Ġgraph": 2490,
      "Ġ<=": 2491,
      "Ġ>=": 2492,
      "ĠJune": 2493,
      "ĠJanuary": 2494,
      "ĠJuly": 2495,
      "ĠOctob": 2496,
      "Ġfevri": 2497,
      "ĠZeta": 2498,
      "ĠDecember": 2499,
      "Ġ!=": 2500,
      "ĠÂ£": 2501,
      "ĠÂ¥": 2502,
      "Ġmars": 2503,
      "Ġmardi": 2504,
      "Ġ===": 2505,
      "ĠTheta": 2506,
      "ĠThursday": 2507,
      "Ġ2100": 2508,
      "57721": 2509,
      "71828": 2510,
      "41421": 2511,
      "ĠWednesday": 2512,
      "Ġsamedi": 2513,
      "Ġlundi": 2514,
      "Ġmercredi": 2515,
      "Ġnovembre": 2516,
      "Ġoctobre": 2517,
      "ĠSunday": 2518,
      "ĠSeptember": 2519,
      "ĠSaturday": 2520,
      "Ġvendredi": 2521,
      "Ġseptembre": 2522,
      "Ġjuillet": 2523,
      "Ġjanvier": 2524,
      "ĠFebruary": 2525,
      "ĠAugust": 2526,
      "ĠtempÃ©rature": 2527,
      "ĠNovember": 2528,
      "ĠOctober": 2529,
      "Ġfevrier": 2530,
      "66": 2531,
      "Tree": 2532,
      "45": 2533,
      "Ġnode": 2534,
      "Ġlayer": 2535,
      "33": 2536,
      "89": 2537,
      "Edge": 2538,
      "12": 2539,
      "Set": 2540,
      "Ġiter": 2541,
      "52": 2542,
      "90": 2543,
      "41": 2544,
      "Ġrecurrent": 2545,
      "06": 2546,
      "dow": 2547,
      "down": 2548,
      "31": 2549,
      "MoEBlock": 2550,
      "ĠSparseMoEBlock": 2551,
      "gener": 2552,
      "new": 2553,
      "tokens": 2554,
      "generate": 2555,
      "num": 2556,
      "epochs": 2557,
      "42": 2558,
      "43": 2559,
      "ĠK": 2560,
      "router": 2561,
      "55": 2562,
      "fu": 2563,
      "full": 2564,
      "96": 2565,
      "_(": 2566,
      "cli": 2567,
      "Ġsch": 2568,
      "edul": 2569,
      "clip": 2570,
      "Ġschedul": 2571,
      "Ġscheduler": 2572,
      "ping": 2573,
      "yping": 2574,
      "Ġtyping": 2575,
      "ĠList": 2576,
      "ĠTuple": 2577,
      "ptional": 2578,
      "ĠOptional": 2579,
      "ĠDict": 2580,
      "function": 2581,
      "functional": 2582,
      "80": 2583,
      "Ġlabels": 2584,
      "51": 2585,
      "',": 2586,
      "aut": 2587,
      "bfloat": 2588,
      "cl": 2589,
      "cu": 2590,
      "da": 2591,
      "oad": 2592,
      "Ġ__": 2593,
      "one": 2594,
      "Ġdtype": 2595,
      "aload": 2596,
      "Ġnum": 2597,
      "ast": 2598,
      "asses": 2599,
      "Ġdataload": 2600,
      "__(": 2601,
      "ocast": 2602,
      "autocast": 2603,
      "classes": 2604,
      "cuda": 2605,
      "Ġdataloader": 2606,
      "23": 2607,
      "60": 2608,
      "87": 2609,
      "Hel": 2610,
      "ld": 2611,
      "no": 2612,
      "orld": 2613,
      "encode": 2614,
      "Ġtokenizer": 2615,
      "Ġworld": 2616,
      "Hello": 2617,
      "lu": 2618,
      "lab": 2619,
      "silu": 2620,
      "384": 2621,
      "labels": 2622,
      "'])['": 2623,
      "Ġ])": 2624,
      "eval": 2625,
      "squ": 2626,
      "item": 2627,
      "square": 2628,
      "([": 2629,
      "86": 2630,
      "97": 2631,
      "cog": 2632,
      "pt": 2633,
      "uate": 2634,
      "Ġeval": 2635,
      "moe": 2636,
      "ModuleList": 2637,
      "cognet": 2638,
      "Ġevaluate": 2639,
      "voc": 2640,
      "ze": 2641,
      "size": 2642,
      "16384": 2643,
      "ĠCogNetMoE": 2644,
      "2048": 2645,
      "vocab": 2646,
      "GL": 2647,
      "Sw": 2648,
      "iGL": 2649,
      "Ġ_": 2650,
      "edSw": 2651,
      "usedSw": 2652,
      "ĠFusedSw": 2653,
      "iGLU": 2654,
      "ĠFusedSwiGLU": 2655,
      "nb": 2656,
      "Ġbnb": 2657,
      "Ġ1995": 2658,
      "AdamW": 2659,
      "dropout": 2660,
      "Ġ99": 2661,
      "zer": 2662,
      "chun": 2663,
      "zero": 2664,
      "chunk": 2665,
      "98": 2666,
      "Ġ96": 2667,
      "Ġforward": 2668,
      "Ġ2020": 2669,
      "Ġ45": 2670,
      "Ġ2017": 2671,
      "Ġ->": 2672,
      "Ġ66": 2673,
      "08": 2674,
      "07": 2675,
      "Fal": 2676,
      "Line": 2677,
      "Ġsuper": 2678,
      "Ġ37": 2679,
      "Ġ2029": 2680,
      "Ġ76": 2681,
      "Ġ1999": 2682,
      "__()": 2683,
      "().__": 2684,
      "False": 2685,
      "Linear": 2686,
      "Ġ2009": 2687,
      "Ġ39": 2688,
      "Ġ89": 2689,
      "Ġ1996": 2690,
      "Ġ15": 2691,
      "Ġ29": 2692,
      "Ġ33": 2693,
      "Ġ2027": 2694,
      "Ġ48": 2695,
      "Ġ49": 2696,
      "Ġ67": 2697,
      "Ġ78": 2698,
      "Ġ1997": 2699,
      "Ġ16": 2700,
      "Ġ2018": 2701,
      "Ġ2005": 2702,
      "Ġ27": 2703,
      "Ġ77": 2704,
      "Ġ95": 2705,
      "Ġ98": 2706,
      "Ġ2010": 2707,
      "67": 2708,
      "Ġ13": 2709,
      "Ġ2014": 2710,
      "Ġ88": 2711,
      "Ġ2021": 2712,
      "Ġ46": 2713,
      "Ġ69": 2714,
      "Ġ36": 2715,
      "Ġ84": 2716,
      "Ġ60": 2717,
      "68": 2718,
      "Ġ34": 2719,
      "Ġ81": 2720,
      "ĠĠĠĠĠĠĠĠĠĠĠĠ": 2721,
      "Ġ1998": 2722,
      "Ġ2002": 2723,
      "Ġ2007": 2724,
      "Ġ18": 2725,
      "Ġ2000": 2726,
      "Ġ2016": 2727,
      "Ġ38": 2728,
      "Ġ86": 2729,
      "Ġ65": 2730,
      "Ġ79": 2731,
      "Ġ94": 2732,
      "Ġ1990": 2733,
      "Ġ1991": 2734,
      "Ġ2001": 2735,
      "Ġ2003": 2736,
      "Ġ2013": 2737,
      "Ġ2019": 2738,
      "69": 2739,
      "Ġ17": 2740,
      "Ġ54": 2741,
      "Ġ55": 2742,
      "Ġ59": 2743,
      "Ġ2028": 2744,
      "Ġ62": 2745,
      "Ġ70": 2746,
      "Ġ73": 2747,
      "Ġ90": 2748,
      "Ġ1992": 2749,
      "Ġ1994": 2750,
      "01": 2751,
      "Ġ26": 2752,
      "Ġ83": 2753,
      "Ġ56": 2754,
      "Ġ2023": 2755,
      "Ġ68": 2756,
      "Ġ2012": 2757,
      "03": 2758,
      "Ġ2022": 2759,
      "Ġ64": 2760,
      "Ġ74": 2761,
      "Ġ97": 2762,
      "Ġ2011": 2763,
      "Ġ19": 2764,
      "Ġ22": 2765,
      "Ġ82": 2766,
      "Ġ2004": 2767,
      "Ġ2006": 2768,
      "05": 2769,
      "Ġ14": 2770,
      "Ġ24": 2771,
      "Ġ25": 2772,
      "Ġ2015": 2773,
      "Ġ87": 2774,
      "Ġ53": 2775,
      "Ġ63": 2776,
      "73": 2777,
      "Ġ32": 2778,
      "Ġ85": 2779,
      "Ġ43": 2780,
      "Ġ61": 2781,
      "Ġ75": 2782,
      "02": 2783,
      "Ġ58": 2784,
      "Ġ72": 2785,
      "Ġ91": 2786,
      "Ġ1993": 2787,
      "04": 2788,
      "72": 2789,
      "79": 2790,
      "81": 2791,
      "83": 2792,
      "Ġ35": 2793,
      "Ġ2008": 2794,
      "Ġ28": 2795,
      "Ġ31": 2796,
      "Ġ41": 2797,
      "Ġ92": 2798,
      "Ġ93": 2799,
      "Ġ80": 2800,
      "Ġ42": 2801,
      "Ġ71": 2802,
      "61": 2803,
      "Ġ23": 2804,
      "Ġ52": 2805,
      "Ġ57": 2806,
      "Ġ47": 2807,
      "ĠĠĠĠĠĠĠĠĠĠĠ": 2808,
      "74": 2809,
      "85": 2810,
      "Ġ51": 2811,
      "62": 2812,
      "64": 2813,
      "93": 2814,
      "94": 2815,
      "ĠtransformData": 2816,
      "Ġ44": 2817,
      "ĠcomputeQueue": 2818,
      "ĠshouldStatus": 2819,
      "ĠgetVersion": 2820,
      "65": 2821,
      "75": 2822,
      "ĠcreateQueue": 2823,
      "63": 2824,
      "815": 2825,
      "ĠshouldState": 2826,
      "ĠbuildKind": 2827,
      "763": 2828,
      "100": 2829,
      "84": 2830,
      "143": 2831,
      "247": 2832,
      "ĠcreateMap": 2833,
      "ĠgetNode": 2834,
      "296": 2835,
      "ĠbuildBlock": 2836,
      "ĠsetUser": 2837,
      "ĠconvertBatch": 2838,
      "ĠconvertGraph": 2839,
      "ĠgenerateBatch": 2840,
      "82": 2841,
      "857": 2842,
      "ĠisSample": 2843,
      "ĠisVersion": 2844,
      "166": 2845,
      "505": 2846,
      "307": 2847,
      "ĠprocessMap": 2848,
      "ĠdeleteUser": 2849,
      "ĠcanStack": 2850,
      "120": 2851,
      "330": 2852,
      "346": 2853,
      "317": 2854,
      "436": 2855,
      "514": 2856,
      "524": 2857,
      "ĠisKind": 2858,
      "ĠcomputeUser": 2859,
      "ĠcomputeType": 2860,
      "ĠcomputeToken": 2861,
      "506": 2862,
      "303": 2863,
      "ĠprocessGraph": 2864,
      "288": 2865,
      "385": 2866,
      "207": 2867,
      "ĠcreateUser": 2868,
      "ĠcreateModel": 2869,
      "ĠshouldUser": 2870,
      "ĠgetUser": 2871,
      "ĠgetLayer": 2872,
      "497": 2873,
      "358": 2874,
      "ĠbuildSample": 2875,
      "ĠbuildNode": 2876,
      "171": 2877,
      "ĠhasTensor": 2878,
      "ĠhasUser": 2879,
      "377": 2880,
      "567": 2881,
      "886": 2882,
      "782": 2883,
      "221": 2884,
      "292": 2885,
      "225": 2886,
      "632": 2887,
      "722": 2888,
      "753": 2889,
      "95": 2890,
      "003": 2891,
      "ĠtransformType": 2892,
      "ĠisUser": 2893,
      "ĠisGraph": 2894,
      "ĠisSet": 2895,
      "ĠcomputeSet": 2896,
      "502": 2897,
      "305": 2898,
      "187": 2899,
      "ĠprocessTensor": 2900,
      "ĠprocessType": 2901,
      "ĠupdateMap": 2902,
      "ĠupdateGraph": 2903,
      "ĠupdateState": 2904,
      "244": 2905,
      "ĠcreateBatch": 2906,
      "ĠcreateConfig": 2907,
      "ĠcreateStack": 2908,
      "396": 2909,
      "264": 2910,
      "ĠshouldQueue": 2911,
      "ĠshouldLayer": 2912,
      "ĠgetMap": 2913,
      "ĠgetConfig": 2914,
      "ĠgetEdge": 2915,
      "ĠmakeList": 2916,
      "ĠmakeConfig": 2917,
      "352": 2918,
      "ĠbuildData": 2919,
      "ĠsetList": 2920,
      "ĠsetSample": 2921,
      "ĠsetConfig": 2922,
      "ĠsetNode": 2923,
      "ĠhasLayer": 2924,
      "371": 2925,
      "ĠfindModel": 2926,
      "ĠcanStatus": 2927,
      "ĠcanVersion": 2928,
      "ĠgenerateSample": 2929,
      "ĠgenerateTree": 2930,
      "ĠvalidateBatch": 2931,
      "ĠvalidateGraph": 2932,
      "ĠvalidateModel": 2933,
      "444": 2934,
      "768": 2935,
      "222": 2936,
      "049": 2937,
      "114": 2938,
      "122": 2939,
      "226": 2940,
      "229": 2941,
      "315": 2942,
      "357": 2943,
      "320": 2944,
      "326": 2945,
      "509": 2946,
      "515": 2947,
      "548": 2948,
      "556": 2949,
      "554": 2950,
      "617": 2951,
      "745": 2952,
      "846": 2953,
      "849": 2954,
      "819": 2955,
      "847": 2956,
      "ĠtransformBlock": 2957,
      "ĠtransformLayer": 2958,
      "ĠisBlock": 2959,
      "ĠisEdge": 2960,
      "167": 2961,
      "ĠcomputeStatus": 2962,
      "093": 2963,
      "141": 2964,
      "501": 2965,
      "210": 2966,
      "180": 2967,
      "185": 2968,
      "ĠprocessStatus": 2969,
      "ĠprocessConfig": 2970,
      "ĠprocessLayer": 2971,
      "ĠupdateStatus": 2972,
      "ĠupdateInfo": 2973,
      "287": 2974,
      "480": 2975,
      "386": 2976,
      "387": 2977,
      "ĠcreateKind": 2978,
      "ĠcreateSample": 2979,
      "ĠcreateData": 2980,
      "ĠcreateInfo": 2981,
      "ĠcreateNode": 2982,
      "397": 2983,
      "463": 2984,
      "468": 2985,
      "469": 2986,
      "ĠshouldSample": 2987,
      "ĠshouldModel": 2988,
      "ĠshouldStack": 2989,
      "ĠshouldInfo": 2990,
      "364": 2991,
      "368": 2992,
      "ĠgetBatch": 2993,
      "ĠgetQueue": 2994,
      "498": 2995,
      "ĠmakeBlock": 2996,
      "ĠmakeUser": 2997,
      "ĠmakeQueue": 2998,
      "ĠmakeKind": 2999,
      "ĠmakeSample": 3000,
      "ĠmakeInfo": 3001,
      "ĠmakeVersion": 3002,
      "198": 3003,
      "471": 3004,
      "ĠbuildModel": 3005,
      "ĠsetStatus": 3006,
      "176": 3007,
      "ĠhasConfig": 3008,
      "ĠhasInfo": 3009,
      "ĠhasTree": 3010,
      "272": 3011,
      "378": 3012,
      "ĠconvertUser": 3013,
      "ĠconvertInfo": 3014,
      "ĠfindKind": 3015,
      "ĠfindType": 3016,
      "ĠfindNode": 3017,
      "ĠfindSet": 3018,
      "ĠdeleteKind": 3019,
      "ĠdeleteData": 3020,
      "ĠdeleteStack": 3021,
      "ĠcanGraph": 3022,
      "ĠgenerateToken": 3023,
      "ĠvalidateEdge": 3024,
      "441": 3025,
      "133": 3026,
      "594": 3027,
      "597": 3028,
      "880": 3029,
      "345": 3030,
      "779": 3031,
      "786": 3032,
      "111": 3033,
      "064": 3034,
      "961": 3035,
      "804": 3036,
      "868": 3037,
      "684": 3038,
      "078": 3039,
      "043": 3040,
      "192": 3041,
      "350": 3042,
      "338": 3043,
      "339": 3044,
      "349": 3045,
      "332": 3046,
      "427": 3047,
      "454": 3048,
      "500": 3049,
      "520": 3050,
      "552": 3051,
      "650": 3052,
      "628": 3053,
      "620": 3054,
      "624": 3055,
      "642": 3056,
      "799": 3057,
      "725": 3058,
      "727": 3059,
      "754": 3060,
      "824": 3061,
      "844": 3062,
      "957": 3063,
      "938": 3064,
      "944": 3065,
      "988": 3066,
      "Ġ330": 3067,
      "Ġ329": 3068,
      "ĠtransformKind": 3069,
      "ĠtransformGraph": 3070,
      "ĠtransformToken": 3071,
      "ĠisList": 3072,
      "ĠisModel": 3073,
      "ĠisState": 3074,
      "162": 3075,
      "Ġ648": 3076,
      "990": 3077,
      "ĠcomputeBatch": 3078,
      "ĠcomputeSample": 3079,
      "ĠcomputeConfig": 3080,
      "ĠcomputeStack": 3081,
      "ĠcomputeNode": 3082,
      "Ġ724": 3083,
      "149": 3084,
      "218": 3085,
      "158": 3086,
      "574": 3087,
      "ĠprocessQueue": 3088,
      "ĠupdateBlock": 3089,
      "ĠupdateList": 3090,
      "283": 3091,
      "482": 3092,
      "488": 3093,
      "381": 3094,
      "249": 3095,
      "ĠcreateBlock": 3096,
      "ĠcreateTensor": 3097,
      "ĠcreateToken": 3098,
      "ĠcreateTree": 3099,
      "395": 3100,
      "267": 3101,
      "269": 3102,
      "465": 3103,
      "467": 3104,
      "ĠshouldKind": 3105,
      "ĠshouldData": 3106,
      "ĠshouldType": 3107,
      "ĠshouldToken": 3108,
      "366": 3109,
      "ĠgetKind": 3110,
      "ĠgetStatus": 3111,
      "ĠmakeMap": 3112,
      "ĠmakeData": 3113,
      "ĠmakeModel": 3114,
      "ĠmakeState": 3115,
      "196": 3116,
      "351": 3117,
      "476": 3118,
      "253": 3119,
      "ĠbuildTensor": 3120,
      "ĠsetLayer": 3121,
      "ĠsetState": 3122,
      "ĠsetToken": 3123,
      "ĠsetTree": 3124,
      "403": 3125,
      "405": 3126,
      "ĠhasBatch": 3127,
      "ĠhasMap": 3128,
      "ĠhasData": 3129,
      "ĠhasGraph": 3130,
      "ĠhasModel": 3131,
      "ĠhasState": 3132,
      "ĠhasVersion": 3133,
      "370": 3134,
      "566": 3135,
      "ĠconvertBlock": 3136,
      "ĠconvertType": 3137,
      "ĠconvertStack": 3138,
      "ĠconvertTree": 3139,
      "ĠfindStack": 3140,
      "ĠfindToken": 3141,
      "ĠdeleteType": 3142,
      "ĠdeleteInfo": 3143,
      "ĠdeleteToken": 3144,
      "ĠcanMap": 3145,
      "ĠcanType": 3146,
      "ĠcanState": 3147,
      "ĠgenerateMap": 3148,
      "ĠgenerateQueue": 3149,
      "ĠgenerateData": 3150,
      "ĠgenerateModel": 3151,
      "ĠvalidateBlock": 3152,
      "ĠvalidateUser": 3153,
      "ĠvalidateKind": 3154,
      "ĠvalidateData": 3155,
      "ĠvalidateNode": 3156,
      "ĠvalidateVersion": 3157,
      "108": 3158,
      "582": 3159,
      "131": 3160,
      "881": 3161,
      "761": 3162,
      "341": 3163,
      "451": 3164,
      "890": 3165,
      "891": 3166,
      "895": 3167,
      "902": 3168,
      "962": 3169,
      "965": 3170,
      "805": 3171,
      "601": 3172,
      "604": 3173,
      "864": 3174,
      "974": 3175,
      "130": 3176,
      "118": 3177,
      "216": 3178,
      "299": 3179,
      "228": 3180,
      "238": 3181,
      "399": 3182,
      "327": 3183,
      "344": 3184,
      "409": 3185,
      "418": 3186,
      "448": 3187,
      "420": 3188,
      "446": 3189,
      "435": 3190,
      "440": 3191,
      "437": 3192,
      "413": 3193,
      "530": 3194,
      "529": 3195,
      "558": 3196,
      "621": 3197,
      "615": 3198,
      "635": 3199,
      "659": 3200,
      "633": 3201,
      "690": 3202,
      "641": 3203,
      "643": 3204,
      "757": 3205,
      "739": 3206,
      "740": 3207,
      "758": 3208,
      "838": 3209,
      "835": 3210,
      "877": 3211,
      "811": 3212,
      "851": 3213,
      "900": 3214,
      "918": 3215,
      "915": 3216,
      "940": 3217,
      "956": 3218,
      "932": 3219,
      "945": 3220,
      "951": 3221,
      "987": 3222,
      "Ġ226": 3223,
      "008": 3224,
      "ĠtransformInfo": 3225,
      "ĠtransformEdge": 3226,
      "ĠisTensor": 3227,
      "ĠisQueue": 3228,
      "ĠisStatus": 3229,
      "ĠisStack": 3230,
      "ĠcomputeLayer": 3231,
      "ĠcomputeVersion": 3232,
      "Ġ924": 3233,
      "096": 3234,
      "508": 3235,
      "215": 3236,
      "181": 3237,
      "183": 3238,
      "570": 3239,
      "572": 3240,
      "575": 3241,
      "ĠprocessUser": 3242,
      "ĠprocessModel": 3243,
      "ĠprocessState": 3244,
      "ĠupdateUser": 3245,
      "ĠupdateModel": 3246,
      "ĠupdateNode": 3247,
      "ĠupdateTree": 3248,
      "280": 3249,
      "484": 3250,
      "486": 3251,
      "924": 3252,
      "925": 3253,
      "927": 3254,
      "240": 3255,
      "245": 3256,
      "246": 3257,
      "ĠcreateList": 3258,
      "ĠcreateState": 3259,
      "ĠcreateSet": 3260,
      "263": 3261,
      "266": 3262,
      "460": 3263,
      "ĠshouldMap": 3264,
      "ĠshouldConfig": 3265,
      "ĠshouldEdge": 3266,
      "367": 3267,
      "ĠgetList": 3268,
      "ĠgetSample": 3269,
      "ĠgetGraph": 3270,
      "ĠgetType": 3271,
      "ĠgetToken": 3272,
      "290": 3273,
      "297": 3274,
      "ĠmakeBatch": 3275,
      "ĠmakeGraph": 3276,
      "ĠmakeStatus": 3277,
      "ĠmakeStack": 3278,
      "ĠmakeToken": 3279,
      "ĠmakeEdge": 3280,
      "191": 3281,
      "195": 3282,
      "256": 3283,
      "ĠbuildUser": 3284,
      "ĠbuildBatch": 3285,
      "ĠbuildMap": 3286,
      "ĠbuildQueue": 3287,
      "ĠbuildConfig": 3288,
      "ĠbuildLayer": 3289,
      "ĠbuildEdge": 3290,
      "ĠsetBatch": 3291,
      "ĠsetMap": 3292,
      "ĠsetData": 3293,
      "ĠsetGraph": 3294,
      "ĠsetType": 3295,
      "ĠsetInfo": 3296,
      "174": 3297,
      "177": 3298,
      "406": 3299,
      "407": 3300,
      "408": 3301,
      "ĠhasList": 3302,
      "ĠhasType": 3303,
      "270": 3304,
      "271": 3305,
      "273": 3306,
      "275": 3307,
      "561": 3308,
      "568": 3309,
      "ĠconvertTensor": 3310,
      "ĠconvertMap": 3311,
      "ĠconvertModel": 3312,
      "ĠconvertStatus": 3313,
      "ĠconvertConfig": 3314,
      "ĠconvertLayer": 3315,
      "ĠfindBlock": 3316,
      "ĠfindUser": 3317,
      "ĠfindMap": 3318,
      "ĠfindSample": 3319,
      "ĠfindData": 3320,
      "ĠfindState": 3321,
      "ĠfindTree": 3322,
      "ĠfindEdge": 3323,
      "ĠdeleteBlock": 3324,
      "ĠdeleteBatch": 3325,
      "ĠdeleteMap": 3326,
      "ĠdeleteModel": 3327,
      "ĠdeleteStatus": 3328,
      "ĠdeleteNode": 3329,
      "ĠcanSample": 3330,
      "ĠcanData": 3331,
      "ĠcanInfo": 3332,
      "ĠgenerateBlock": 3333,
      "ĠgenerateStack": 3334,
      "ĠgenerateLayer": 3335,
      "ĠgenerateState": 3336,
      "ĠgenerateInfo": 3337,
      "ĠvalidateQueue": 3338,
      "ĠvalidateSample": 3339,
      "ĠvalidateConfig": 3340,
      "ĠvalidateInfo": 3341,
      "101": 3342,
      "585": 3343,
      "445": 3344,
      "132": 3345,
      "595": 3346,
      "596": 3347,
      "883": 3348,
      "543": 3349,
      "767": 3350,
      "775": 3351,
      "783": 3352,
      "787": 3353,
      "789": 3354,
      "703": 3355,
      "704": 3356,
      "662": 3357,
      "664": 3358,
      "893": 3359,
      "897": 3360,
      "123": 3361,
      "901": 3362,
      "903": 3363,
      "905": 3364,
      "069": 3365,
      "969": 3366,
      "871": 3367,
      "863": 3368,
      "867": 3369,
      "981": 3370,
      "983": 3371,
      "672": 3372,
      "693": 3373,
      "047": 3374,
      "040": 3375,
      "059": 3376,
      "055": 3377,
      "087": 3378,
      "138": 3379,
      "126": 3380,
      "113": 3381,
      "209": 3382,
      "214": 3383,
      "250": 3384,
      "257": 3385,
      "248": 3386,
      "220": 3387,
      "236": 3388,
      "233": 3389,
      "319": 3390,
      "415": 3391,
      "428": 3392,
      "438": 3393,
      "429": 3394,
      "422": 3395,
      "432": 3396,
      "433": 3397,
      "550": 3398,
      "518": 3399,
      "519": 3400,
      "532": 3401,
      "534": 3402,
      "553": 3403,
      "609": 3404,
      "614": 3405,
      "626": 3406,
      "637": 3407,
      "676": 3408,
      "631": 3409,
      "697": 3410,
      "748": 3411,
      "792": 3412,
      "726": 3413,
      "713": 3414,
      "711": 3415,
      "733": 3416,
      "752": 3417,
      "743": 3418,
      "796": 3419,
      "798": 3420,
      "830": 3421,
      "892": 3422,
      "826": 3423,
      "827": 3424,
      "822": 3425,
      "870": 3426,
      "91": 3427,
      "916": 3428,
      "946": 3429,
      "936": 3430,
      "959": 3431,
      "976": 3432,
      "934": 3433,
      "970": 3434,
      "Ġ140": 3435,
      "Ġ292": 3436,
      "Ġ235": 3437,
      "Ġ247": 3438,
      "Ġ210": 3439,
      "007": 3440,
      "009": 3441,
      "Ġ399": 3442,
      "Ġ347": 3443,
      "Ġ377": 3444,
      "ĠtransformTensor": 3445,
      "ĠtransformList": 3446,
      "ĠtransformBatch": 3447,
      "ĠtransformMap": 3448,
      "ĠtransformSample": 3449,
      "ĠtransformStack": 3450,
      "ĠtransformState": 3451,
      "ĠtransformNode": 3452,
      "ĠtransformVersion": 3453,
      "ĠtransformSet": 3454,
      "Ġ821": 3455,
      "Ġ870": 3456,
      "ĠisType": 3457,
      "ĠisInfo": 3458,
      "ĠisTree": 3459,
      "Ġ566": 3460,
      "161": 3461,
      "164": 3462,
      "Ġ425": 3463,
      "Ġ454": 3464,
      "995": 3465,
      "ĠcomputeBlock": 3466,
      "ĠcomputeMap": 3467,
      "ĠcomputeKind": 3468,
      "ĠcomputeData": 3469,
      "Ġ730": 3470,
      "Ġ746": 3471,
      "Ġ749": 3472,
      "Ġ753": 3473,
      "Ġ1047": 3474,
      "Ġ919": 3475,
      "Ġ960": 3476,
      "145": 3477,
      "148": 3478,
      "503": 3479,
      "212": 3480,
      "302": 3481,
      "306": 3482,
      "188": 3483,
      "151": 3484,
      "153": 3485,
      "ĠprocessBatch": 3486,
      "ĠprocessStack": 3487,
      "ĠprocessVersion": 3488,
      "ĠprocessToken": 3489,
      "ĠprocessTree": 3490,
      "ĠprocessEdge": 3491,
      "ĠprocessSet": 3492,
      "ĠupdateBatch": 3493,
      "ĠupdateKind": 3494,
      "ĠupdateType": 3495,
      "ĠupdateConfig": 3496,
      "ĠupdateStack": 3497,
      "ĠupdateToken": 3498,
      "282": 3499,
      "284": 3500,
      "483": 3501,
      "489": 3502,
      "382": 3503,
      "388": 3504,
      "920": 3505,
      "922": 3506,
      "926": 3507,
      "204": 3508,
      "206": 3509,
      "242": 3510,
      "ĠcreateType": 3511,
      "ĠcreateLayer": 3512,
      "ĠcreateVersion": 3513,
      "ĠcreateEdge": 3514,
      "391": 3515,
      "393": 3516,
      "394": 3517,
      "262": 3518,
      "464": 3519,
      "466": 3520,
      "ĠshouldTensor": 3521,
      "ĠshouldList": 3522,
      "ĠshouldBatch": 3523,
      "ĠshouldNode": 3524,
      "ĠshouldTree": 3525,
      "369": 3526,
      "ĠgetModel": 3527,
      "ĠgetStack": 3528,
      "293": 3529,
      "490": 3530,
      "491": 3531,
      "495": 3532,
      "ĠmakeType": 3533,
      "ĠmakeLayer": 3534,
      "ĠmakeNode": 3535,
      "ĠmakeSet": 3536,
      "353": 3537,
      "354": 3538,
      "473": 3539,
      "477": 3540,
      "251": 3541,
      "254": 3542,
      "ĠbuildList": 3543,
      "ĠbuildType": 3544,
      "ĠbuildStack": 3545,
      "ĠbuildInfo": 3546,
      "ĠbuildToken": 3547,
      "ĠbuildTree": 3548,
      "ĠsetBlock": 3549,
      "ĠsetQueue": 3550,
      "ĠsetModel": 3551,
      "ĠsetStack": 3552,
      "175": 3553,
      "404": 3554,
      "ĠhasBlock": 3555,
      "ĠhasKind": 3556,
      "ĠhasStatus": 3557,
      "ĠhasNode": 3558,
      "277": 3559,
      "374": 3560,
      "560": 3561,
      "565": 3562,
      "ĠconvertList": 3563,
      "ĠconvertKind": 3564,
      "ĠconvertData": 3565,
      "ĠconvertEdge": 3566,
      "ĠconvertSet": 3567,
      "ĠfindTensor": 3568,
      "ĠfindBatch": 3569,
      "ĠfindGraph": 3570,
      "ĠdeleteList": 3571,
      "ĠdeleteQueue": 3572,
      "ĠdeleteGraph": 3573,
      "ĠdeleteLayer": 3574,
      "ĠdeleteState": 3575,
      "ĠdeleteTree": 3576,
      "ĠcanBlock": 3577,
      "ĠcanUser": 3578,
      "ĠcanKind": 3579,
      "ĠcanConfig": 3580,
      "ĠcanToken": 3581,
      "ĠcanTree": 3582,
      "ĠcanEdge": 3583,
      "ĠcanSet": 3584,
      "ĠgenerateTensor": 3585,
      "ĠgenerateList": 3586,
      "ĠgenerateType": 3587,
      "ĠgenerateConfig": 3588,
      "ĠgenerateEdge": 3589,
      "ĠvalidateLayer": 3590,
      "ĠvalidateState": 3591,
      "ĠvalidateSet": 3592,
      "106": 3593,
      "583": 3594,
      "584": 3595,
      "443": 3596,
      "882": 3597,
      "887": 3598,
      "888": 3599,
      "342": 3600,
      "771": 3601,
      "773": 3602,
      "780": 3603,
      "531": 3604,
      "706": 3605,
      "708": 3606,
      "455": 3607,
      "894": 3608,
      "067": 3609,
      "555": 3610,
      "801": 3611,
      "803": 3612,
      "861": 3613,
      "979": 3614,
      "984": 3615,
      "674": 3616,
      "691": 3617,
      "795": 3618,
      "048": 3619,
      "019": 3620,
      "017": 3621,
      "022": 3622,
      "032": 3623,
      "053": 3624,
      "089": 3625,
      "109": 3626,
      "150": 3627,
      "124": 3628,
      "125": 3629,
      "239": 3630,
      "300": 3631,
      "328": 3632,
      "348": 3633,
      "392": 3634,
      "324": 3635,
      "310": 3636,
      "311": 3637,
      "416": 3638,
      "499": 3639,
      "421": 3640,
      "457": 3641,
      "492": 3642,
      "439": 3643,
      "419": 3644,
      "447": 3645,
      "458": 3646,
      "411": 3647,
      "412": 3648,
      "431": 3649,
      "521": 3650,
      "557": 3651,
      "526": 3652,
      "546": 3653,
      "536": 3654,
      "535": 3655,
      "525": 3656,
      "537": 3657,
      "510": 3658,
      "513": 3659,
      "522": 3660,
      "512": 3661,
      "648": 3662,
      "638": 3663,
      "636": 3664,
      "629": 3665,
      "649": 3666,
      "647": 3667,
      "625": 3668,
      "640": 3669,
      "610": 3670,
      "644": 3671,
      "613": 3672,
      "678": 3673,
      "689": 3674,
      "623": 3675,
      "700": 3676,
      "721": 3677,
      "738": 3678,
      "720": 3679,
      "724": 3680,
      "749": 3681,
      "747": 3682,
      "732": 3683,
      "712": 3684,
      "800": 3685,
      "809": 3686,
      "828": 3687,
      "820": 3688,
      "856": 3689,
      "813": 3690,
      "876": 3691,
      "832": 3692,
      "834": 3693,
      "866": 3694,
      "842": 3695,
      "843": 3696,
      "855": 3697,
      "909": 3698,
      "930": 3699,
      "919": 3700,
      "917": 3701,
      "958": 3702,
      "913": 3703,
      "954": 3704,
      "911": 3705,
      "966": 3706,
      "933": 3707,
      "952": 3708,
      "941": 3709,
      "943": 3710,
      "980": 3711,
      "Ġ136": 3712,
      "Ġ156": 3713,
      "Ġ188": 3714,
      "Ġ178": 3715,
      "Ġ246": 3716,
      "Ġ236": 3717,
      "Ġ229": 3718,
      "Ġ256": 3719,
      "Ġ277": 3720,
      "Ġ289": 3721,
      "Ġ280": 3722,
      "Ġ260": 3723,
      "001": 3724,
      "004": 3725,
      "005": 3726,
      "006": 3727,
      "Ġ328": 3728,
      "Ġ325": 3729,
      "Ġ378": 3730,
      "Ġ366": 3731,
      "Ġ360": 3732,
      "Ġ386": 3733,
      "ĠtransformUser": 3734,
      "ĠtransformQueue": 3735,
      "ĠtransformStatus": 3736,
      "ĠtransformTree": 3737,
      "Ġ816": 3738,
      "Ġ899": 3739,
      "Ġ892": 3740,
      "Ġ829": 3741,
      "Ġ827": 3742,
      "Ġ843": 3743,
      "Ġ887": 3744,
      "Ġ808": 3745,
      "ĠisBatch": 3746,
      "ĠisLayer": 3747,
      "Ġ514": 3748,
      "Ġ520": 3749,
      "Ġ554": 3750,
      "163": 3751,
      "165": 3752,
      "Ġ409": 3753,
      "Ġ417": 3754,
      "Ġ488": 3755,
      "Ġ434": 3756,
      "Ġ470": 3757,
      "Ġ496": 3758,
      "Ġ600": 3759,
      "Ġ614": 3760,
      "Ġ657": 3761,
      "Ġ636": 3762,
      "Ġ649": 3763,
      "Ġ635": 3764,
      "Ġ659": 3765,
      "Ġ676": 3766,
      "Ġ690": 3767,
      "Ġ6378": 3768,
      "998": 3769,
      "ĠcomputeState": 3770,
      "ĠcomputeInfo": 3771,
      "Ġ718": 3772,
      "Ġ729": 3773,
      "Ġ719": 3774,
      "Ġ727": 3775,
      "Ġ788": 3776,
      "Ġ777": 3777,
      "Ġ790": 3778,
      "Ġ760": 3779,
      "Ġ957": 3780,
      "Ġ948": 3781,
      "Ġ977": 3782,
      "Ġ980": 3783,
      "092": 3784,
      "095": 3785,
      "140": 3786,
      "144": 3787,
      "146": 3788,
      "147": 3789,
      "50786": 3790,
      "213": 3791,
      "217": 3792,
      "301": 3793,
      "579": 3794,
      "5729": 3795,
      "ĠprocessSample": 3796,
      "ĠupdateQueue": 3797,
      "ĠupdateSample": 3798,
      "ĠupdateData": 3799,
      "ĠupdateEdge": 3800,
      "ĠupdateSet": 3801,
      "281": 3802,
      "285": 3803,
      "481": 3804,
      "380": 3805,
      "383": 3806,
      "3814": 3807,
      "201": 3808,
      "202": 3809,
      "205": 3810,
      "ĠcreateGraph": 3811,
      "ĠcreateStatus": 3812,
      "390": 3813,
      "268": 3814,
      "ĠshouldBlock": 3815,
      "ĠshouldGraph": 3816,
      "ĠshouldVersion": 3817,
      "ĠgetBlock": 3818,
      "ĠgetData": 3819,
      "ĠgetTree": 3820,
      "ĠgetSet": 3821,
      "291": 3822,
      "298": 3823,
      "494": 3824,
      "ĠmakeTensor": 3825,
      "190": 3826,
      "194": 3827,
      "356": 3828,
      "478": 3829,
      "479": 3830,
      "255": 3831,
      "259": 3832,
      "ĠbuildStatus": 3833,
      "ĠbuildState": 3834,
      "ĠsetTensor": 3835,
      "ĠsetSet": 3836,
      "170": 3837,
      "173": 3838,
      "178": 3839,
      "401": 3840,
      "402": 3841,
      "ĠhasQueue": 3842,
      "ĠhasSample": 3843,
      "ĠhasStack": 3844,
      "ĠhasEdge": 3845,
      "373": 3846,
      "562": 3847,
      "ĠfindQueue": 3848,
      "ĠfindStatus": 3849,
      "ĠfindConfig": 3850,
      "ĠfindLayer": 3851,
      "ĠfindVersion": 3852,
      "ĠdeleteTensor": 3853,
      "ĠdeleteSample": 3854,
      "ĠdeleteConfig": 3855,
      "ĠdeleteSet": 3856,
      "ĠcanList": 3857,
      "ĠcanQueue": 3858,
      "ĠcanModel": 3859,
      "ĠcanLayer": 3860,
      "ĠgenerateStatus": 3861,
      "ĠgenerateVersion": 3862,
      "ĠvalidateTensor": 3863,
      "ĠvalidateList": 3864,
      "104": 3865,
      "105": 3866,
      "580": 3867,
      "581": 3868,
      "589": 3869,
      "442": 3870,
      "590": 3871,
      "593": 3872,
      "541": 3873,
      "542": 3874,
      "764": 3875,
      "769": 3876,
      "343": 3877,
      "533": 3878,
      "5347": 3879,
      "701": 3880,
      "702": 3881,
      "705": 3882,
      "112": 3883,
      "661": 3884,
      "663": 3885,
      "669": 3886,
      "896": 3887,
      "898": 3888,
      "523": 3889,
      "904": 3890,
      "907": 3891,
      "068": 3892,
      "963": 3893,
      "802": 3894,
      "808": 3895,
      "602": 3896,
      "605": 3897,
      "875": 3898,
      "879": 3899,
      "865": 3900,
      "973": 3901,
      "Ġ9997": 3902,
      "072": 3903,
      "073": 3904,
      "079": 3905,
      "Ġ295": 3906,
      "Ġ4935": 3907,
      "Ġ7806": 3908,
      "Ġ163": 3909,
      "673": 3910,
      "675": 3911,
      "681": 3912,
      "683": 3913,
      "Ġ7910": 3914,
      "793": 3915,
      "030": 3916,
      "015": 3917,
      "057": 3918,
      "028": 3919,
      "038": 3920,
      "046": 3921,
      "025": 3922,
      "058": 3923,
      "088": 3924,
      "034": 3925,
      "077": 3926,
      "070": 3927,
      "011": 3928,
      "033": 3929,
      "052": 3930,
      "041": 3931,
      "042": 3932,
      "116": 3933,
      "128": 3934,
      "139": 3935,
      "129": 3936,
      "119": 3937,
      "127": 3938,
      "110": 3939,
      "200": 3940,
      "230": 3941,
      "227": 3942,
      "231": 3943,
      "316": 3944,
      "318": 3945,
      "329": 3946,
      "347": 3947,
      "325": 3948,
      "340": 3949,
      "337": 3950,
      "334": 3951,
      "430": 3952,
      "449": 3953,
      "516": 3954,
      "599": 3955,
      "528": 3956,
      "539": 3957,
      "517": 3958,
      "527": 3959,
      "511": 3960,
      "5597": 3961,
      "5404": 3962,
      "699": 3963,
      "692": 3964,
      "639": 3965,
      "646": 3966,
      "656": 3967,
      "654": 3968,
      "677": 3969,
      "670": 3970,
      "645": 3971,
      "612": 3972,
      "652": 3973,
      "698": 3974,
      "71": 3975,
      "716": 3976,
      "709": 3977,
      "714": 3978,
      "746": 3979,
      "729": 3980,
      "719": 3981,
      "735": 3982,
      "737": 3983,
      "776": 3984,
      "734": 3985,
      "790": 3986,
      "742": 3987,
      "751": 3988,
      "723": 3989,
      "816": 3990,
      "821": 3991,
      "839": 3992,
      "825": 3993,
      "810": 3994,
      "858": 3995,
      "859": 3996,
      "878": 3997,
      "806": 3998,
      "831": 3999,
      "823": 4000,
      "8093": 4001,
      "950": 4002,
      "921": 4003,
      "948": 4004,
      "947": 4005,
      "937": 4006,
      "977": 4007,
      "978": 4008,
      "953": 4009,
      "931": 4010,
      "942": 4011,
      "Ġ150": 4012,
      "Ġ147": 4013,
      "Ġ177": 4014,
      "Ġ1414": 4015,
      "Ġ133": 4016,
      "Ġ189": 4017,
      "Ġ196": 4018,
      "Ġ1386": 4019,
      "Ġ216": 4020,
      "Ġ218": 4021,
      "Ġ220": 4022,
      "Ġ239": 4023,
      "Ġ219": 4024,
      "Ġ258": 4025,
      "Ġ252": 4026,
      "Ġ287": 4027,
      "Ġ297": 4028,
      "Ġ2249": 4029,
      "Ġ205": 4030,
      "002": 4031,
      "0020": 4032,
      "0008": 4033,
      "Ġ300": 4034,
      "Ġ318": 4035,
      "Ġ348": 4036,
      "Ġ392": 4037,
      "Ġ346": 4038,
      "Ġ388": 4039,
      "Ġ376": 4040,
      "Ġ341": 4041,
      "Ġ331": 4042,
      "Ġ396": 4043,
      "ĠtransformConfig": 4044,
      "Ġ809": 4045,
      "Ġ815": 4046,
      "Ġ828": 4047,
      "Ġ848": 4048,
      "Ġ824": 4049,
      "Ġ825": 4050,
      "Ġ837": 4051,
      "Ġ858": 4052,
      "Ġ888": 4053,
      "Ġ877": 4054,
      "Ġ812": 4055,
      "Ġ8396": 4056,
      "ĠisData": 4057,
      "ĠisNode": 4058,
      "ĠisToken": 4059,
      "Ġ518": 4060,
      "Ġ515": 4061,
      "Ġ548": 4062,
      "Ġ524": 4063,
      "Ġ526": 4064,
      "Ġ546": 4065,
      "Ġ535": 4066,
      "Ġ517": 4067,
      "Ġ537": 4068,
      "Ġ588": 4069,
      "Ġ576": 4070,
      "Ġ578": 4071,
      "Ġ570": 4072,
      "Ġ586": 4073,
      "Ġ5195": 4074,
      "1652": 4075,
      "Ġ416": 4076,
      "Ġ415": 4077,
      "Ġ457": 4078,
      "Ġ428": 4079,
      "Ġ448": 4080,
      "Ġ449": 4081,
      "Ġ447": 4082,
      "Ġ440": 4083,
      "Ġ427": 4084,
      "Ġ437": 4085,
      "Ġ458": 4086,
      "Ġ476": 4087,
      "Ġ477": 4088,
      "Ġ433": 4089,
      "Ġ490": 4090,
      "Ġ498": 4091,
      "Ġ4207": 4092,
      "Ġ616": 4093,
      "Ġ630": 4094,
      "Ġ628": 4095,
      "Ġ638": 4096,
      "Ġ624": 4097,
      "Ġ646": 4098,
      "Ġ629": 4099,
      "Ġ637": 4100,
      "Ġ656": 4101,
      "Ġ613": 4102,
      "Ġ678": 4103,
      "Ġ653": 4104,
      "Ġ666": 4105,
      "Ġ689": 4106,
      "Ġ612": 4107,
      "Ġ631": 4108,
      "Ġ660": 4109,
      "Ġ6498": 4110,
      "993": 4111,
      "996": 4112,
      "999": 4113,
      "ĠcomputeTensor": 4114,
      "ĠcomputeList": 4115,
      "ĠcomputeGraph": 4116,
      "ĠcomputeModel": 4117,
      "ĠcomputeTree": 4118,
      "Ġ709": 4119,
      "Ġ715": 4120,
      "Ġ757": 4121,
      "Ġ738": 4122,
      "Ġ739": 4123,
      "Ġ758": 4124,
      "Ġ770": 4125,
      "Ġ755": 4126,
      "Ġ787": 4127,
      "Ġ916": 4128,
      "Ġ909": 4129,
      "Ġ930": 4130,
      "Ġ939": 4131,
      "Ġ926": 4132,
      "Ġ946": 4133,
      "Ġ949": 4134,
      "Ġ925": 4135,
      "Ġ958": 4136,
      "Ġ932": 4137,
      "Ġ989": 4138,
      "Ġ952": 4139,
      "Ġ907": 4140,
      "097": 4141,
      "098": 4142,
      "0957": 4143,
      "0949": 4144,
      "0944": 4145,
      "142": 4146,
      "Ġ123": 4147,
      "Ġ1248": 4148,
      "507": 4149,
      "5078": 4150,
      "211": 4151,
      "219": 4152,
      "304": 4153,
      "308": 4154,
      "3022": 4155,
      "3043": 4156,
      "184": 4157,
      "186": 4158,
      "152": 4159,
      "155": 4160,
      "156": 4161,
      "157": 4162,
      "1589": 4163,
      "1572": 4164,
      "578": 4165,
      "5740": 4166,
      "ĠprocessBlock": 4167,
      "ĠprocessList": 4168,
      "ĠprocessKind": 4169,
      "ĠupdateLayer": 4170,
      "ĠupdateVersion": 4171,
      "2836": 4172,
      "485": 4173,
      "4838": 4174,
      "4854": 4175,
      "4851": 4176,
      "0905": 4177,
      "389": 4178,
      "3834": 4179,
      "3852": 4180,
      "3861": 4181,
      "923": 4182,
      "9258": 4183,
      "9232": 4184,
      "9206": 4185,
      "9279": 4186,
      "203": 4187,
      "2081": 4188,
      "243": 4189,
      "2452": 4190,
      "3950": 4191,
      "3919": 4192,
      "3958": 4193,
      "261": 4194,
      "461": 4195,
      "4699": 4196,
      "ĠshouldSet": 4197,
      "361": 4198,
      "362": 4199,
      "363": 4200,
      "365": 4201,
      "3657": 4202,
      "3610": 4203,
      "3631": 4204,
      "3696": 4205,
      "ĠgetTensor": 4206,
      "ĠgetState": 4207,
      "ĠgetInfo": 4208,
      "295": 4209,
      "2944": 4210,
      "493": 4211,
      "4985": 4212,
      "ĠmakeTree": 4213,
      "355": 4214,
      "359": 4215,
      "470": 4216,
      "472": 4217,
      "475": 4218,
      "4714": 4219,
      "4747": 4220,
      "252": 4221,
      "258": 4222,
      "2562": 4223,
      "ĠbuildGraph": 4224,
      "ĠbuildVersion": 4225,
      "ĠbuildSet": 4226,
      "ĠsetKind": 4227,
      "ĠsetEdge": 4228,
      "179": 4229,
      "1781": 4230,
      "ĠhasSet": 4231,
      "274": 4232,
      "276": 4233,
      "375": 4234,
      "564": 4235,
      "569": 4236,
      "ĠconvertQueue": 4237,
      "ĠconvertState": 4238,
      "ĠconvertNode": 4239,
      "ĠconvertVersion": 4240,
      "ĠconvertToken": 4241,
      "Ġ308": 4242,
      "Ġ3037": 4243,
      "Ġ3010": 4244,
      "Ġ3089": 4245,
      "ĠfindInfo": 4246,
      "ĠdeleteVersion": 4247,
      "ĠcanTensor": 4248,
      "ĠcanBatch": 4249,
      "ĠcanNode": 4250,
      "ĠgenerateKind": 4251,
      "ĠgenerateGraph": 4252,
      "ĠgenerateSet": 4253,
      "ĠvalidateType": 4254,
      "ĠvalidateStatus": 4255,
      "ĠvalidateToken": 4256,
      "ĠvalidateTree": 4257,
      "102": 4258,
      "103": 4259,
      "107": 4260,
      "587": 4261,
      "5857": 4262,
      "134": 4263,
      "598": 4264,
      "885": 4265,
      "8877": 4266,
      "5439": 4267,
      "760": 4268,
      "762": 4269,
      "766": 4270,
      "7636": 4271,
      "223": 4272,
      "323": 4273,
      "772": 4274,
      "774": 4275,
      "785": 4276,
      "707": 4277,
      "660": 4278,
      "665": 4279,
      "666": 4280,
      "667": 4281,
      "452": 4282,
      "333": 4283,
      "908": 4284,
      "4119": 4285,
      "063": 4286,
      "551": 4287,
      "964": 4288,
      "967": 4289,
      "968": 4290,
      "603": 4291,
      "874": 4292,
      "8795": 4293,
      "86198": 4294,
      "971": 4295,
      "972": 4296,
      "982": 4297,
      "Ġ4520": 4298,
      "Ġ6699": 4299,
      "081": 4300,
      "084": 4301,
      "085": 4302,
      "071": 4303,
      "Ġ7615": 4304,
      "Ġ3958": 4305,
      "Ġ3913": 4306,
      "Ġ1535": 4307,
      "Ġ293": 4308,
      "Ġ2914": 4309,
      "Ġ2966": 4310,
      "Ġ3340": 4311,
      "Ġ4839": 4312,
      "Ġ495": 4313,
      "Ġ6794": 4314,
      "Ġ27514": 4315,
      "679": 4316,
      "Ġ883": 4317,
      "Ġ6940": 4318,
      "Ġ3614": 4319,
      "Ġ8416": 4320,
      "682": 4321,
      "685": 4322,
      "Ġ8109": 4323,
      "Ġ181": 4324,
      "Ġ1836": 4325,
      "Ġ3825": 4326,
      "Ġ6527": 4327,
      "Ġ9449": 4328,
      "695": 4329,
      "Ġ902": 4330,
      "Ġ9033": 4331,
      "Ġ6840": 4332,
      "Ġ1947": 4333,
      "Ġ2439": 4334,
      "Ġ6314": 4335,
      "Ġ3235": 4336,
      "Ġ5860": 4337,
      "Ġ4200": 4338,
      "3174": 4339,
      "2217": 4340,
      "34537": 4341,
      "7581": 4342
    },
    "merges": [
      [
        "o",
        "n"
      ],
      [
        "t",
        "i"
      ],
      [
        "e",
        "r"
      ],
      [
        "e",
        "n"
      ],
      [
        "i",
        "n"
      ],
      [
        "e",
        "s"
      ],
      [
        "ti",
        "on"
      ],
      [
        "Ã",
        "©"
      ],
      [
        "r",
        "e"
      ],
      [
        "Ġ",
        "d"
      ],
      [
        "r",
        "a"
      ],
      [
        "Ġ",
        "s"
      ],
      [
        "Ġ",
        "p"
      ],
      [
        "Ġ",
        "t"
      ],
      [
        "Ġ",
        "a"
      ],
      [
        "Ġ",
        "l"
      ],
      [
        "o",
        "r"
      ],
      [
        "t",
        "e"
      ],
      [
        "Ġ",
        "c"
      ],
      [
        "i",
        "s"
      ],
      [
        "a",
        "l"
      ],
      [
        "Ġ",
        "Ġ"
      ],
      [
        "Ġ",
        "m"
      ],
      [
        "a",
        "n"
      ],
      [
        "r",
        "o"
      ],
      [
        "c",
        "h"
      ],
      [
        "a",
        "tion"
      ],
      [
        "en",
        "t"
      ],
      [
        "e",
        "l"
      ],
      [
        "o",
        "d"
      ],
      [
        "i",
        "t"
      ],
      [
        "a",
        "t"
      ],
      [
        "a",
        "r"
      ],
      [
        "in",
        "g"
      ],
      [
        "Ġ",
        "L"
      ],
      [
        "l",
        "e"
      ],
      [
        "s",
        "i"
      ],
      [
        "q",
        "u"
      ],
      [
        "c",
        "e"
      ],
      [
        "o",
        "m"
      ],
      [
        "Ġ",
        "e"
      ],
      [
        "u",
        "r"
      ],
      [
        "u",
        "t"
      ],
      [
        "f",
        "i"
      ],
      [
        "Ġ",
        "n"
      ],
      [
        "g",
        "e"
      ],
      [
        "Ġd",
        "e"
      ],
      [
        "Ġ",
        "in"
      ],
      [
        "Ġ",
        "re"
      ],
      [
        "Ġ",
        "h"
      ],
      [
        "d",
        "i"
      ],
      [
        "Ġ",
        "b"
      ],
      [
        "a",
        "s"
      ],
      [
        "e",
        "t"
      ],
      [
        "Ġ",
        "f"
      ],
      [
        "p",
        "er"
      ],
      [
        "c",
        "tion"
      ],
      [
        "Ġt",
        "o"
      ],
      [
        "s",
        "s"
      ],
      [
        "r",
        "Ã©"
      ],
      [
        "Ġ",
        "g"
      ],
      [
        "m",
        "ent"
      ],
      [
        "or",
        "m"
      ],
      [
        "r",
        "i"
      ],
      [
        "a",
        "te"
      ],
      [
        "ĠĠ",
        "ĠĠ"
      ],
      [
        "e",
        "d"
      ],
      [
        "Ġ",
        "1"
      ],
      [
        "Ġ",
        "u"
      ],
      [
        "Ġ",
        "o"
      ],
      [
        "ra",
        "n"
      ],
      [
        "Ġ",
        "2"
      ],
      [
        "l",
        "o"
      ],
      [
        "s",
        "t"
      ],
      [
        "d",
        "u"
      ],
      [
        "Ġc",
        "on"
      ],
      [
        "Ġm",
        "od"
      ],
      [
        "a",
        "ge"
      ],
      [
        "a",
        "m"
      ],
      [
        "i",
        "z"
      ],
      [
        "Ġp",
        "ro"
      ],
      [
        "Ġl",
        "o"
      ],
      [
        "Ġe",
        "x"
      ],
      [
        "v",
        "e"
      ],
      [
        "i",
        "g"
      ],
      [
        "Ġ",
        "ro"
      ],
      [
        "Ġ",
        "0"
      ],
      [
        "qu",
        "e"
      ],
      [
        "r",
        "es"
      ],
      [
        "en",
        "c"
      ],
      [
        "p",
        "o"
      ],
      [
        "fi",
        "c"
      ],
      [
        "e",
        "x"
      ],
      [
        "si",
        "on"
      ],
      [
        "h",
        "e"
      ],
      [
        "l",
        "l"
      ],
      [
        "k",
        "en"
      ],
      [
        "en",
        "ce"
      ],
      [
        "Ġ",
        "="
      ],
      [
        "Ġl",
        "a"
      ],
      [
        "c",
        "om"
      ],
      [
        "ĠL",
        "a"
      ],
      [
        "c",
        "k"
      ],
      [
        "Ġ",
        "S"
      ],
      [
        "t",
        "t"
      ],
      [
        "ran",
        "s"
      ],
      [
        "v",
        "er"
      ],
      [
        "Ġ2",
        "0"
      ],
      [
        "Ġ",
        "R"
      ],
      [
        "s",
        "e"
      ],
      [
        "Ġc",
        "om"
      ],
      [
        "Ã",
        "¨"
      ],
      [
        "f",
        "orm"
      ],
      [
        "e",
        "m"
      ],
      [
        "a",
        "p"
      ],
      [
        "c",
        "es"
      ],
      [
        "Ġa",
        "c"
      ],
      [
        "Ġp",
        "a"
      ],
      [
        "Ġl",
        "e"
      ],
      [
        "Ġ",
        "rÃ©"
      ],
      [
        "am",
        "p"
      ],
      [
        "Ġto",
        "ken"
      ],
      [
        "a",
        "b"
      ],
      [
        "Ġp",
        "o"
      ],
      [
        "al",
        "is"
      ],
      [
        "t",
        "s"
      ],
      [
        "Ġt",
        "rans"
      ],
      [
        "ti",
        "m"
      ],
      [
        "Ġs",
        "Ã©"
      ],
      [
        "t",
        "o"
      ],
      [
        "Ġ",
        "T"
      ],
      [
        "u",
        "re"
      ],
      [
        "Ġ",
        "v"
      ],
      [
        "u",
        "l"
      ],
      [
        "it",
        "s"
      ],
      [
        "i",
        "l"
      ],
      [
        "u",
        "s"
      ],
      [
        "n",
        "e"
      ],
      [
        "Ġp",
        "er"
      ],
      [
        "a",
        "ti"
      ],
      [
        "c",
        "i"
      ],
      [
        "Ġ",
        "w"
      ],
      [
        "p",
        "tim"
      ],
      [
        "Ġ",
        "enc"
      ],
      [
        "iz",
        "ation"
      ],
      [
        "v",
        "is"
      ],
      [
        "0",
        "0"
      ],
      [
        "n",
        "g"
      ],
      [
        "ti",
        "ng"
      ],
      [
        "Ġ",
        "Ã©"
      ],
      [
        "u",
        "te"
      ],
      [
        "en",
        "ti"
      ],
      [
        "amp",
        "le"
      ],
      [
        "Ġd",
        "Ã©"
      ],
      [
        "u",
        "n"
      ],
      [
        "Ġc",
        "l"
      ],
      [
        "u",
        "m"
      ],
      [
        "u",
        "p"
      ],
      [
        "u",
        "per"
      ],
      [
        "Ġd",
        "es"
      ],
      [
        "s",
        "er"
      ],
      [
        "h",
        "o"
      ],
      [
        "ch",
        "i"
      ],
      [
        "ra",
        "in"
      ],
      [
        "Ġc",
        "o"
      ],
      [
        "l",
        "es"
      ],
      [
        "uper",
        "vis"
      ],
      [
        "ig",
        "h"
      ],
      [
        "Ġa",
        "ut"
      ],
      [
        "Ġ",
        "3"
      ],
      [
        "a",
        "y"
      ],
      [
        "fic",
        "ation"
      ],
      [
        "Ġcom",
        "p"
      ],
      [
        "Ġa",
        "u"
      ],
      [
        "Ġd",
        "i"
      ],
      [
        "in",
        "e"
      ],
      [
        "g",
        "ra"
      ],
      [
        "an",
        "ti"
      ],
      [
        "Ġp",
        "ar"
      ],
      [
        "Ġl",
        "es"
      ],
      [
        "d",
        "ing"
      ],
      [
        "Ġmod",
        "el"
      ],
      [
        "n",
        "i"
      ],
      [
        "(",
        ")"
      ],
      [
        "g",
        "its"
      ],
      [
        "Ġa",
        "tt"
      ],
      [
        "di",
        "m"
      ],
      [
        "d",
        "s"
      ],
      [
        "c",
        "t"
      ],
      [
        "ĠL",
        "es"
      ],
      [
        "Ġd",
        "at"
      ],
      [
        "Ġf",
        "or"
      ],
      [
        "p",
        "h"
      ],
      [
        "t",
        "er"
      ],
      [
        "Ġex",
        "per"
      ],
      [
        "Ġo",
        "ptim"
      ],
      [
        "m",
        "b"
      ],
      [
        "an",
        "ce"
      ],
      [
        "at",
        "ch"
      ],
      [
        "ĠL",
        "e"
      ],
      [
        "i",
        "re"
      ],
      [
        "Ġpa",
        "ra"
      ],
      [
        "an",
        "t"
      ],
      [
        "Ġlo",
        "ss"
      ],
      [
        "Ġde",
        "c"
      ],
      [
        "p",
        "s"
      ],
      [
        "g",
        "u"
      ],
      [
        "Ġenc",
        "od"
      ],
      [
        "rain",
        "ing"
      ],
      [
        "Ġ",
        "qu"
      ],
      [
        "o",
        "l"
      ],
      [
        "lo",
        "ss"
      ],
      [
        "p",
        "ar"
      ],
      [
        "Ġac",
        "c"
      ],
      [
        "Ġs",
        "el"
      ],
      [
        "en",
        "tion"
      ],
      [
        "/",
        "/"
      ],
      [
        ":",
        "//"
      ],
      [
        "Ġh",
        "tt"
      ],
      [
        "n",
        "Ã©"
      ],
      [
        "Ġro",
        "ut"
      ],
      [
        "m",
        "o"
      ],
      [
        "Ġp",
        "rÃ©"
      ],
      [
        "p",
        "e"
      ],
      [
        "Ġcl",
        "as"
      ],
      [
        "Ġs",
        "e"
      ],
      [
        "in",
        "f"
      ],
      [
        "e",
        "ur"
      ],
      [
        "Ġmod",
        "Ã¨"
      ],
      [
        "Ġc",
        "ap"
      ],
      [
        "ĠT",
        "he"
      ],
      [
        "Ġd",
        "u"
      ],
      [
        "c",
        "al"
      ],
      [
        "ab",
        "le"
      ],
      [
        "ra",
        "di"
      ],
      [
        "Ġtrans",
        "form"
      ],
      [
        "radi",
        "ent"
      ],
      [
        "od",
        "el"
      ],
      [
        "Ġto",
        "p"
      ],
      [
        "Ġ",
        "M"
      ],
      [
        "Ġ",
        "8"
      ],
      [
        "f",
        "f"
      ],
      [
        "Ġm",
        "a"
      ],
      [
        "ex",
        "ample"
      ],
      [
        "Ġhtt",
        "ps"
      ],
      [
        "Ġ",
        "on"
      ],
      [
        "Ġs",
        "t"
      ],
      [
        "Ġs",
        "y"
      ],
      [
        "Ġp",
        "re"
      ],
      [
        "Ġ",
        "is"
      ],
      [
        "Ġo",
        "f"
      ],
      [
        "is",
        "ation"
      ],
      [
        "Ġt",
        "he"
      ],
      [
        "Ġatt",
        "ention"
      ],
      [
        "e",
        "u"
      ],
      [
        "Ġt",
        "h"
      ],
      [
        "Ġw",
        "it"
      ],
      [
        "g",
        "res"
      ],
      [
        "en",
        "d"
      ],
      [
        "i",
        "d"
      ],
      [
        "Ã©",
        "ri"
      ],
      [
        "u",
        "tion"
      ],
      [
        "du",
        "ction"
      ],
      [
        "m",
        "a"
      ],
      [
        "or",
        "t"
      ],
      [
        "Ġin",
        "ter"
      ],
      [
        "Ġ",
        "j"
      ],
      [
        "Ġl",
        "an"
      ],
      [
        "Ġ",
        "5"
      ],
      [
        "igh",
        "t"
      ],
      [
        "si",
        "tion"
      ],
      [
        "Ġ",
        "F"
      ],
      [
        "Ġa",
        "l"
      ],
      [
        "in",
        "t"
      ],
      [
        "Ġlo",
        "gits"
      ],
      [
        "r",
        "on"
      ],
      [
        "Ġ",
        "C"
      ],
      [
        "com",
        "m"
      ],
      [
        "Ġ20",
        "2"
      ],
      [
        "p",
        "at"
      ],
      [
        "ti",
        "l"
      ],
      [
        "pat",
        "h"
      ],
      [
        "Ġpo",
        "ur"
      ],
      [
        "Ġm",
        "Ã©"
      ],
      [
        "d",
        "ay"
      ],
      [
        "te",
        "p"
      ],
      [
        "o",
        "re"
      ],
      [
        "p",
        "p"
      ],
      [
        "Ġ",
        "D"
      ],
      [
        "en",
        "sion"
      ],
      [
        "ĠR",
        "o"
      ],
      [
        "1",
        "6"
      ],
      [
        "s",
        "upervis"
      ],
      [
        "Ġ",
        "4"
      ],
      [
        "p",
        "ut"
      ],
      [
        "Ġencod",
        "er"
      ],
      [
        "m",
        "et"
      ],
      [
        "Ã©",
        "l"
      ],
      [
        "a",
        "c"
      ],
      [
        "or",
        "ch"
      ],
      [
        "n",
        "el"
      ],
      [
        "Ġh",
        "um"
      ],
      [
        "a",
        "u"
      ],
      [
        "par",
        "se"
      ],
      [
        "v",
        "i"
      ],
      [
        "is",
        "t"
      ],
      [
        "t",
        "es"
      ],
      [
        "ar",
        "ch"
      ],
      [
        "ar",
        "n"
      ],
      [
        "Ġle",
        "arn"
      ],
      [
        "i",
        "on"
      ],
      [
        "o",
        "g"
      ],
      [
        "Ġs",
        "em"
      ],
      [
        "ĠĠ",
        "Ġ"
      ],
      [
        "a",
        "d"
      ],
      [
        "m",
        "p"
      ],
      [
        "ra",
        "tion"
      ],
      [
        "Ġ",
        "6"
      ],
      [
        "ch",
        "e"
      ],
      [
        "alis",
        "ation"
      ],
      [
        "9",
        "9"
      ],
      [
        "i",
        "al"
      ],
      [
        "Ġcomp",
        "ute"
      ],
      [
        "Ġ",
        "G"
      ],
      [
        "ck",
        "po"
      ],
      [
        "Ġ",
        "7"
      ],
      [
        "od",
        "e"
      ],
      [
        "en",
        "er"
      ],
      [
        "at",
        "ure"
      ],
      [
        "g",
        "g"
      ],
      [
        "p",
        "tion"
      ],
      [
        "ar",
        "y"
      ],
      [
        "Ġ",
        "."
      ],
      [
        "et",
        "a"
      ],
      [
        "m",
        "e"
      ],
      [
        "f",
        "er"
      ],
      [
        "Ġ",
        "A"
      ],
      [
        "m",
        "odel"
      ],
      [
        "ar",
        "d"
      ],
      [
        "Ġu",
        "til"
      ],
      [
        "Ġutil",
        "is"
      ],
      [
        "Ġh",
        "i"
      ],
      [
        "Ġ1",
        "0"
      ],
      [
        "te",
        "ur"
      ],
      [
        "Ġb",
        "e"
      ],
      [
        "Ġt",
        "ex"
      ],
      [
        "ĠĠĠĠ",
        "ĠĠĠĠ"
      ],
      [
        "o",
        "is"
      ],
      [
        "P",
        "E"
      ],
      [
        "ĠRo",
        "PE"
      ],
      [
        "Ġt",
        "ra"
      ],
      [
        "c",
        "ur"
      ],
      [
        "ra",
        "l"
      ],
      [
        "Ġ",
        "P"
      ],
      [
        "M",
        "S"
      ],
      [
        "Ġ",
        "9"
      ],
      [
        "Ġt",
        "raining"
      ],
      [
        "ĠR",
        "MS"
      ],
      [
        "Ġexper",
        "ts"
      ],
      [
        "ti",
        "c"
      ],
      [
        "e",
        "ction"
      ],
      [
        "v",
        "es"
      ],
      [
        "al",
        "y"
      ],
      [
        "it",
        "Ã©"
      ],
      [
        "Ġs",
        "o"
      ],
      [
        "Ġpara",
        "ll"
      ],
      [
        "N",
        "orm"
      ],
      [
        "or",
        "k"
      ],
      [
        "du",
        "it"
      ],
      [
        "du",
        "ces"
      ],
      [
        "Ġcom",
        "po"
      ],
      [
        "r",
        "chi"
      ],
      [
        "Ġac",
        "ti"
      ],
      [
        "t",
        "h"
      ],
      [
        "Ġclas",
        "si"
      ],
      [
        "gres",
        "si"
      ],
      [
        "ol",
        "ution"
      ],
      [
        "Ġa",
        "n"
      ],
      [
        "Ġl",
        "on"
      ],
      [
        "Ġ",
        "ra"
      ],
      [
        "it",
        "y"
      ],
      [
        "Ġt",
        "orch"
      ],
      [
        "an",
        "d"
      ],
      [
        "p",
        "lo"
      ],
      [
        "er",
        "s"
      ],
      [
        "or",
        "ce"
      ],
      [
        "Ġg",
        "ener"
      ],
      [
        "Ġau",
        "x"
      ],
      [
        "orce",
        "ment"
      ],
      [
        "s",
        "or"
      ],
      [
        "en",
        "sor"
      ],
      [
        "g",
        "ence"
      ],
      [
        "ver",
        "gence"
      ],
      [
        "Ġlearn",
        "ing"
      ],
      [
        "Ã",
        "ª"
      ],
      [
        "Ã©",
        "ra"
      ],
      [
        "iz",
        "ed"
      ],
      [
        "p",
        "end"
      ],
      [
        "ed",
        "ding"
      ],
      [
        "Ġu",
        "ser"
      ],
      [
        "t",
        "a"
      ],
      [
        "Ġdec",
        "od"
      ],
      [
        "y",
        "pe"
      ],
      [
        "lo",
        "ck"
      ],
      [
        "t",
        "at"
      ],
      [
        "Ġsy",
        "n"
      ],
      [
        "ati",
        "ve"
      ],
      [
        "Ġa",
        "ss"
      ],
      [
        "di",
        "tion"
      ],
      [
        "Ġ",
        "i"
      ],
      [
        "i",
        "x"
      ],
      [
        "u",
        "ting"
      ],
      [
        "Ġro",
        "uting"
      ],
      [
        "Ġd",
        "el"
      ],
      [
        "Ġpo",
        "sition"
      ],
      [
        "fi",
        "l"
      ],
      [
        "w",
        "e"
      ],
      [
        "es",
        "t"
      ],
      [
        "Ġsel",
        "f"
      ],
      [
        "t",
        "ure"
      ],
      [
        "Ã©",
        "r"
      ],
      [
        "Ġa",
        "d"
      ],
      [
        "Ġwit",
        "h"
      ],
      [
        "Ġrout",
        "er"
      ],
      [
        "s",
        "es"
      ],
      [
        "ch",
        "ron"
      ],
      [
        "l",
        "i"
      ],
      [
        "o",
        "p"
      ],
      [
        "b",
        "atch"
      ],
      [
        "Ġin",
        "st"
      ],
      [
        "po",
        "ch"
      ],
      [
        "il",
        "i"
      ],
      [
        "Ġn",
        "u"
      ],
      [
        "b",
        "it"
      ],
      [
        "dim",
        "ension"
      ],
      [
        "Ġt",
        "em"
      ],
      [
        "er",
        "ing"
      ],
      [
        "fi",
        "g"
      ],
      [
        "Ġdi",
        "m"
      ],
      [
        "it",
        "er"
      ],
      [
        "Ġ",
        "N"
      ],
      [
        "v",
        "ent"
      ],
      [
        "Ġpre",
        "vent"
      ],
      [
        "Ġg",
        "radient"
      ],
      [
        "s",
        "tep"
      ],
      [
        "Ġs",
        "u"
      ],
      [
        "ĠsÃ©",
        "m"
      ],
      [
        "a",
        "re"
      ],
      [
        "ĠmodÃ¨",
        "les"
      ],
      [
        "ro",
        "ss"
      ],
      [
        "0",
        "9"
      ],
      [
        "as",
        "es"
      ],
      [
        "1",
        "4"
      ],
      [
        "h",
        "i"
      ],
      [
        "ces",
        "s"
      ],
      [
        "gu",
        "age"
      ],
      [
        "Ġlan",
        "guage"
      ],
      [
        "Ġ",
        "E"
      ],
      [
        "Ġ",
        "res"
      ],
      [
        "Ġm",
        "et"
      ],
      [
        "to",
        "ken"
      ],
      [
        "an",
        "s"
      ],
      [
        "Ġcap",
        "ac"
      ],
      [
        "or",
        "y"
      ],
      [
        "Ġm",
        "em"
      ],
      [
        "Ġin",
        "te"
      ],
      [
        "Ġrout",
        "age"
      ],
      [
        "mo",
        "ire"
      ],
      [
        "ĠmÃ©",
        "moire"
      ],
      [
        "Ġmem",
        "ory"
      ],
      [
        "Ġre",
        "comm"
      ],
      [
        "res",
        "sion"
      ],
      [
        "gra",
        "d"
      ],
      [
        "Ġa",
        "t"
      ],
      [
        "el",
        "s"
      ],
      [
        "le",
        "ction"
      ],
      [
        "Ġu",
        "n"
      ],
      [
        "iz",
        "er"
      ],
      [
        "enc",
        "es"
      ],
      [
        "ĠsÃ©",
        "lection"
      ],
      [
        "l",
        "at"
      ],
      [
        "Ġqu",
        "al"
      ],
      [
        "Ġn",
        "orm"
      ],
      [
        "eu",
        "ral"
      ],
      [
        "re",
        "ment"
      ],
      [
        "Ġa",
        "pp"
      ],
      [
        "Ġu",
        "ses"
      ],
      [
        "Ġutilis",
        "e"
      ],
      [
        "ĠmodÃ¨",
        "le"
      ],
      [
        "Ġs",
        "to"
      ],
      [
        "ro",
        "u"
      ],
      [
        "el",
        "er"
      ],
      [
        "Ġper",
        "form"
      ],
      [
        "Ġacc",
        "Ã©l"
      ],
      [
        "Ġacc",
        "eler"
      ],
      [
        "cur",
        "r"
      ],
      [
        "Ġre",
        "duces"
      ],
      [
        "ĠrÃ©",
        "duit"
      ],
      [
        "Ġhum",
        "an"
      ],
      [
        "on",
        "nÃ©"
      ],
      [
        "Ġd",
        "onnÃ©"
      ],
      [
        "ĠdonnÃ©",
        "es"
      ],
      [
        "a",
        "in"
      ],
      [
        "a",
        "ch"
      ],
      [
        "r",
        "en"
      ],
      [
        "Ġ1",
        "00"
      ],
      [
        "â",
        "Ĥ"
      ],
      [
        "Ġ",
        "âĤ"
      ],
      [
        "al",
        "id"
      ],
      [
        "an",
        "ces"
      ],
      [
        "Ġ1",
        "99"
      ],
      [
        "Ġv",
        "alid"
      ],
      [
        "Ġse",
        "arch"
      ],
      [
        "gressi",
        "ve"
      ],
      [
        "Ġan",
        "aly"
      ],
      [
        "u",
        "sion"
      ],
      [
        "Ġre",
        "qu"
      ],
      [
        "v",
        "olution"
      ],
      [
        "ne",
        "ment"
      ],
      [
        "M",
        "o"
      ],
      [
        "i",
        "r"
      ],
      [
        "in",
        "d"
      ],
      [
        "Ġc",
        "he"
      ],
      [
        "Ġaut",
        "h"
      ],
      [
        "Ġoptim",
        "ization"
      ],
      [
        "Mo",
        "E"
      ],
      [
        "Ġche",
        "ckpo"
      ],
      [
        "on",
        "n"
      ],
      [
        "Ġre",
        "p"
      ],
      [
        "Ġu",
        "ni"
      ],
      [
        "ĠG",
        "radient"
      ],
      [
        "Ġdecod",
        "ing"
      ],
      [
        "Ġa",
        "s"
      ],
      [
        "Ġ1",
        "2"
      ],
      [
        "ate",
        "ur"
      ],
      [
        "a",
        "ra"
      ],
      [
        "l",
        "y"
      ],
      [
        "p",
        "ara"
      ],
      [
        "rans",
        "form"
      ],
      [
        "w",
        "ork"
      ],
      [
        "Ġe",
        "mb"
      ],
      [
        "Ġn",
        "et"
      ],
      [
        "Ġemb",
        "edding"
      ],
      [
        "Ġnet",
        "work"
      ],
      [
        "Ġa",
        "v"
      ],
      [
        "i",
        "fication"
      ],
      [
        "Ġt",
        "able"
      ],
      [
        "Ġdat",
        "a"
      ],
      [
        "t",
        "ra"
      ],
      [
        "Ġd",
        "is"
      ],
      [
        "Ġm",
        "on"
      ],
      [
        "Ġu",
        "p"
      ],
      [
        "up",
        "le"
      ],
      [
        "s",
        "ul"
      ],
      [
        "w",
        "are"
      ],
      [
        "Ġ",
        "est"
      ],
      [
        "Ġcon",
        "st"
      ],
      [
        "r",
        "y"
      ],
      [
        "Ã",
        "®"
      ],
      [
        "ra",
        "Ã®"
      ],
      [
        "ent",
        "raÃ®"
      ],
      [
        "Ġb",
        "atch"
      ],
      [
        "Ġ20",
        "0"
      ],
      [
        "inf",
        "orcement"
      ],
      [
        "st",
        "ate"
      ],
      [
        "Ã©",
        "nÃ©"
      ],
      [
        "Ġm",
        "at"
      ],
      [
        "Ġg",
        "Ã©nÃ©"
      ],
      [
        "Ġse",
        "qu"
      ],
      [
        "Ã©",
        "e"
      ],
      [
        "Ġs",
        "upervis"
      ],
      [
        "Ġin",
        "fer"
      ],
      [
        "Ġinfer",
        "ence"
      ],
      [
        "u",
        "le"
      ],
      [
        "Ġcon",
        "dition"
      ],
      [
        "ĠS",
        "parse"
      ],
      [
        "Ġn",
        "on"
      ],
      [
        "ver",
        "s"
      ],
      [
        "Ġi",
        "mp"
      ],
      [
        "c",
        "is"
      ],
      [
        "cis",
        "ion"
      ],
      [
        "ti",
        "f"
      ],
      [
        "ay",
        "er"
      ],
      [
        "v",
        "el"
      ],
      [
        "y",
        "er"
      ],
      [
        "ro",
        "po"
      ],
      [
        "supervis",
        "ed"
      ],
      [
        "ropo",
        "ut"
      ],
      [
        "c",
        "re"
      ],
      [
        "Ġs",
        "up"
      ],
      [
        "Ġp",
        "ri"
      ],
      [
        "per",
        "ature"
      ],
      [
        "ci",
        "ation"
      ],
      [
        "Ġtem",
        "perature"
      ],
      [
        "Ġsup",
        "p"
      ],
      [
        ")",
        ":"
      ],
      [
        "Ġb",
        "y"
      ],
      [
        "ĠdÃ©",
        "c"
      ],
      [
        "5",
        "0"
      ],
      [
        "Ġs",
        "ur"
      ],
      [
        "Ġoptim",
        "izer"
      ],
      [
        "er",
        "ial"
      ],
      [
        "on",
        "fig"
      ],
      [
        "Ġ",
        "en"
      ],
      [
        "Ġo",
        "ut"
      ],
      [
        "we",
        "ight"
      ],
      [
        "lo",
        "gits"
      ],
      [
        "ver",
        "sion"
      ],
      [
        "ho",
        "t"
      ],
      [
        "Ġj",
        "o"
      ],
      [
        "Ġtoken",
        "s"
      ],
      [
        "o",
        "ptim"
      ],
      [
        "at",
        "a"
      ],
      [
        "c",
        "le"
      ],
      [
        "2",
        "1"
      ],
      [
        "g",
        "ent"
      ],
      [
        "i",
        "te"
      ],
      [
        "m",
        "er"
      ],
      [
        "mer",
        "gent"
      ],
      [
        "3",
        "0"
      ],
      [
        "m",
        "in"
      ],
      [
        "supervis",
        "Ã©"
      ],
      [
        "g",
        "ate"
      ],
      [
        "el",
        "le"
      ],
      [
        "fic",
        "i"
      ],
      [
        "at",
        "us"
      ],
      [
        "Ġd",
        "om"
      ],
      [
        "ch",
        "as"
      ],
      [
        "Ġdes",
        "c"
      ],
      [
        "Ġdom",
        "in"
      ],
      [
        "1",
        "8"
      ],
      [
        "N",
        "et"
      ],
      [
        "Ġ",
        "*"
      ],
      [
        "ĠC",
        "og"
      ],
      [
        "ĠCog",
        "Net"
      ],
      [
        "y",
        "per"
      ],
      [
        "in",
        "ding"
      ],
      [
        "fi",
        "ll"
      ],
      [
        "Ġh",
        "yper"
      ],
      [
        "Ġb",
        "inding"
      ],
      [
        "Ġro",
        "le"
      ],
      [
        "fill",
        "er"
      ],
      [
        "Ġhyper",
        "dimension"
      ],
      [
        "ar",
        "ge"
      ],
      [
        "Ġg",
        "ran"
      ],
      [
        "l",
        "on"
      ],
      [
        "o",
        "uple"
      ],
      [
        "r",
        "ti"
      ],
      [
        "Ġs",
        "ci"
      ],
      [
        "Ġmod",
        "er"
      ],
      [
        "ig",
        "ence"
      ],
      [
        "ll",
        "igence"
      ],
      [
        "Ġdec",
        "ouple"
      ],
      [
        "Ġsci",
        "enti"
      ],
      [
        "Ġdecouple",
        "d"
      ],
      [
        "er",
        "che"
      ],
      [
        "ch",
        "erche"
      ],
      [
        "el",
        "les"
      ],
      [
        "Ġre",
        "cherche"
      ],
      [
        "Ġ",
        "z"
      ],
      [
        "ct",
        "or"
      ],
      [
        "1",
        "5"
      ],
      [
        "Ġo",
        "ver"
      ],
      [
        "b",
        "al"
      ],
      [
        "c",
        "ing"
      ],
      [
        "g",
        "ul"
      ],
      [
        "Ġs",
        "ig"
      ],
      [
        "an",
        "cing"
      ],
      [
        "Ġlo",
        "ad"
      ],
      [
        "Ġac",
        "ross"
      ],
      [
        "anti",
        "c"
      ],
      [
        "anti",
        "que"
      ],
      [
        "ni",
        "fic"
      ],
      [
        "Ġsem",
        "antic"
      ],
      [
        "Ġaux",
        "ili"
      ],
      [
        "Ġprevent",
        "s"
      ],
      [
        "ĠsÃ©m",
        "antique"
      ],
      [
        "bal",
        "ancing"
      ],
      [
        "gul",
        "ar"
      ],
      [
        "Ġsig",
        "nific"
      ],
      [
        "a",
        "il"
      ],
      [
        "p",
        "is"
      ],
      [
        "od",
        "i"
      ],
      [
        "Ġg",
        "ra"
      ],
      [
        "pis",
        "odi"
      ],
      [
        "g",
        "age"
      ],
      [
        "k",
        "e"
      ],
      [
        "Ġs",
        "cal"
      ],
      [
        "Ġb",
        "i"
      ],
      [
        "Ġlan",
        "gage"
      ],
      [
        "d",
        "am"
      ],
      [
        "Ġ",
        "<"
      ],
      [
        "Ġ",
        ">"
      ],
      [
        "Ġ",
        "J"
      ],
      [
        "Ġper",
        "s"
      ],
      [
        "mb",
        "er"
      ],
      [
        "mb",
        "re"
      ],
      [
        "Ġ",
        "O"
      ],
      [
        "Ġexper",
        "t"
      ],
      [
        "e",
        "poch"
      ],
      [
        "Ġt",
        "ro"
      ],
      [
        "ro",
        "up"
      ],
      [
        "Ġg",
        "roup"
      ],
      [
        "ĠR",
        "e"
      ],
      [
        "Ġcapac",
        "itÃ©"
      ],
      [
        "ti",
        "er"
      ],
      [
        "al",
        "iz"
      ],
      [
        "ro",
        "m"
      ],
      [
        "Ġf",
        "rom"
      ],
      [
        "per",
        "ts"
      ],
      [
        "ex",
        "perts"
      ],
      [
        "Ġass",
        "ist"
      ],
      [
        "d",
        "e"
      ],
      [
        "Ġmodel",
        "s"
      ],
      [
        "Ġdat",
        "ab"
      ],
      [
        "a",
        "us"
      ],
      [
        "u",
        "it"
      ],
      [
        "tion",
        "s"
      ],
      [
        "Ġn",
        "ois"
      ],
      [
        "Ġh",
        "igh"
      ],
      [
        "Ġg",
        "aus"
      ],
      [
        "enti",
        "ment"
      ],
      [
        "Ġdi",
        "vergence"
      ],
      [
        "mo",
        "tions"
      ],
      [
        "Ġclassi",
        "fi"
      ],
      [
        "Ġgaus",
        "si"
      ],
      [
        "Ġs",
        "parse"
      ],
      [
        "Ġpara",
        "met"
      ],
      [
        "Ġparamet",
        "er"
      ],
      [
        "5",
        "7"
      ],
      [
        "D",
        "P"
      ],
      [
        "f",
        "ore"
      ],
      [
        "ĠS",
        "DP"
      ],
      [
        "ĠÃ©",
        "ch"
      ],
      [
        "Ġbe",
        "fore"
      ],
      [
        "Ġav",
        "ant"
      ],
      [
        "ĠSDP",
        "A"
      ],
      [
        "Ã",
        "ł"
      ],
      [
        "Ġ",
        "Ãł"
      ],
      [
        "Ġrecomm",
        "and"
      ],
      [
        "m",
        "s"
      ],
      [
        "in",
        "te"
      ],
      [
        "Ġapp",
        "li"
      ],
      [
        "h",
        "od"
      ],
      [
        "Ġn",
        "eural"
      ],
      [
        "Ġmet",
        "hod"
      ],
      [
        "er",
        "ar"
      ],
      [
        "Ġs",
        "ans"
      ],
      [
        "ci",
        "al"
      ],
      [
        "ho",
        "ut"
      ],
      [
        "chi",
        "cal"
      ],
      [
        "Ġwit",
        "hout"
      ],
      [
        "au",
        "x"
      ],
      [
        "Ġhi",
        "Ã©ra"
      ],
      [
        "Ġhi",
        "erar"
      ],
      [
        "ĠhiÃ©ra",
        "rchi"
      ],
      [
        "Ġhierar",
        "chical"
      ],
      [
        "t",
        "ype"
      ],
      [
        "Ġt",
        "w"
      ],
      [
        "e",
        "ment"
      ],
      [
        "Ġm",
        "e"
      ],
      [
        "as",
        "et"
      ],
      [
        "Ġpro",
        "cess"
      ],
      [
        "Ġdat",
        "aset"
      ],
      [
        "Ġsel",
        "ection"
      ],
      [
        "a",
        "ire"
      ],
      [
        "alis",
        "e"
      ],
      [
        "a",
        "ck"
      ],
      [
        "b",
        "ack"
      ],
      [
        "i",
        "res"
      ],
      [
        "Ġ",
        "+"
      ],
      [
        "al",
        "l"
      ],
      [
        "an",
        "te"
      ],
      [
        "Ġe",
        "ach"
      ],
      [
        "Ġn",
        "Ã©"
      ],
      [
        "as",
        "k"
      ],
      [
        "ĠsÃ©",
        "qu"
      ],
      [
        "Ġdi",
        "ff"
      ],
      [
        "Ġparall",
        "el"
      ],
      [
        "r",
        "enti"
      ],
      [
        "ur",
        "es"
      ],
      [
        "ss",
        "age"
      ],
      [
        "Ġbe",
        "am"
      ],
      [
        "ĠRMS",
        "Norm"
      ],
      [
        "Ġnorm",
        "alisation"
      ],
      [
        "renti",
        "ssage"
      ],
      [
        "ĠgÃ©nÃ©",
        "ration"
      ],
      [
        "g",
        "h"
      ],
      [
        "h",
        "in"
      ],
      [
        "i",
        "du"
      ],
      [
        "o",
        "st"
      ],
      [
        "ti",
        "o"
      ],
      [
        "Ġh",
        "ard"
      ],
      [
        "ll",
        "a"
      ],
      [
        "chi",
        "lla"
      ],
      [
        "Ġth",
        "rou"
      ],
      [
        "ĠC",
        "hin"
      ],
      [
        "Ġra",
        "tio"
      ],
      [
        "Ġsyn",
        "th"
      ],
      [
        "idu",
        "al"
      ],
      [
        "Ġhard",
        "ware"
      ],
      [
        "Ġthrou",
        "gh"
      ],
      [
        "ĠChin",
        "chilla"
      ],
      [
        "or",
        "s"
      ],
      [
        "or",
        "Ã©"
      ],
      [
        "ri",
        "b"
      ],
      [
        "Ġatt",
        "rib"
      ],
      [
        "teur",
        "s"
      ],
      [
        "Ġdel",
        "e"
      ],
      [
        "Ġauth",
        "enti"
      ],
      [
        "c",
        "ation"
      ],
      [
        "g",
        "er"
      ],
      [
        "od",
        "age"
      ],
      [
        "ce",
        "ption"
      ],
      [
        "Ġex",
        "plo"
      ],
      [
        "Ġex",
        "tra"
      ],
      [
        "Ġex",
        "ception"
      ],
      [
        "Ġqu",
        "anti"
      ],
      [
        "Ġgener",
        "ation"
      ],
      [
        "Ġperform",
        "ance"
      ],
      [
        "Ġacceler",
        "ate"
      ],
      [
        "Ġextra",
        "po"
      ],
      [
        "Ġc",
        "hi"
      ],
      [
        "as",
        "e"
      ],
      [
        "ran",
        "ge"
      ],
      [
        "Ġpro",
        "duction"
      ],
      [
        "Ġacti",
        "ve"
      ],
      [
        "a",
        "g"
      ],
      [
        "d",
        "om"
      ],
      [
        "j",
        "ection"
      ],
      [
        "Ġ",
        "ri"
      ],
      [
        "Ġpro",
        "jection"
      ],
      [
        "Ġro",
        "t"
      ],
      [
        "ap",
        "ho"
      ],
      [
        "ĠdÃ©",
        "pend"
      ],
      [
        "Ġst",
        "ag"
      ],
      [
        "dom",
        "ain"
      ],
      [
        "Ġri",
        "v"
      ],
      [
        "apho",
        "re"
      ],
      [
        "Ġstag",
        "ing"
      ],
      [
        "u",
        "il"
      ],
      [
        "gu",
        "es"
      ],
      [
        "Ġlon",
        "gues"
      ],
      [
        "Ġqual",
        "ification"
      ],
      [
        "d",
        "ate"
      ],
      [
        "ro",
        "gressive"
      ],
      [
        "si",
        "fication"
      ],
      [
        "Ġn",
        "eur"
      ],
      [
        "ĠLa",
        "yer"
      ],
      [
        "ĠS",
        "par"
      ],
      [
        "ĠP",
        "rogressive"
      ],
      [
        "Ġup",
        "date"
      ],
      [
        "Ġneur",
        "on"
      ],
      [
        "ĠLayer",
        "Norm"
      ],
      [
        "ĠSpar",
        "sification"
      ],
      [
        "d",
        "ding"
      ],
      [
        "t",
        "raining"
      ],
      [
        "du",
        "re"
      ],
      [
        "Ġpro",
        "mp"
      ],
      [
        "Ġpa",
        "dding"
      ],
      [
        "ff",
        "rement"
      ],
      [
        "Ãª",
        "te"
      ],
      [
        "Ġpromp",
        "t"
      ],
      [
        "t",
        "un"
      ],
      [
        "ti",
        "que"
      ],
      [
        "ation",
        "s"
      ],
      [
        "ent",
        "ations"
      ],
      [
        "Ġf",
        "ine"
      ],
      [
        "ul",
        "ti"
      ],
      [
        "inf",
        "Ã©r"
      ],
      [
        "ir",
        "t"
      ],
      [
        "tun",
        "ing"
      ],
      [
        "infÃ©r",
        "ence"
      ],
      [
        "'",
        "]"
      ],
      [
        "[",
        "'"
      ],
      [
        "t",
        "re"
      ],
      [
        "Ġa",
        "ve"
      ],
      [
        "Ġa",
        "gg"
      ],
      [
        "Ġl",
        "i"
      ],
      [
        "ĠS",
        "pe"
      ],
      [
        "Ġave",
        "c"
      ],
      [
        "Ġagg",
        "re"
      ],
      [
        "g",
        "ment"
      ],
      [
        "p",
        "re"
      ],
      [
        "in",
        "ting"
      ],
      [
        "Ġin",
        "cre"
      ],
      [
        "ix",
        "ture"
      ],
      [
        "Ġcheckpo",
        "inting"
      ],
      [
        "ry",
        "ption"
      ],
      [
        "gment",
        "er"
      ],
      [
        "2",
        "8"
      ],
      [
        "g",
        "or"
      ],
      [
        "it",
        "h"
      ],
      [
        "Ġper",
        "met"
      ],
      [
        "Ġal",
        "gor"
      ],
      [
        "Ġuni",
        "que"
      ],
      [
        "Ġalgor",
        "ith"
      ],
      [
        "b",
        "le"
      ],
      [
        "b",
        "st"
      ],
      [
        "e",
        "c"
      ],
      [
        "x",
        "y"
      ],
      [
        "ra",
        "ction"
      ],
      [
        "Ġa",
        "bst"
      ],
      [
        "Ġpro",
        "xy"
      ],
      [
        "Ġis",
        "ol"
      ],
      [
        "para",
        "ble"
      ],
      [
        "Ġsupervis",
        "Ã©"
      ],
      [
        "Ġabst",
        "raction"
      ],
      [
        "ch",
        "ine"
      ],
      [
        "qu",
        "es"
      ],
      [
        "om",
        "ati"
      ],
      [
        "Ġpro",
        "fil"
      ],
      [
        "Ġaut",
        "omati"
      ],
      [
        "Ġma",
        "chine"
      ],
      [
        "Ġvalid",
        "ation"
      ],
      [
        "Ġautomati",
        "que"
      ],
      [
        "f",
        "t"
      ],
      [
        "g",
        "ni"
      ],
      [
        "t",
        "ation"
      ],
      [
        "t",
        "ransform"
      ],
      [
        "Ġ",
        "/"
      ],
      [
        "Ġa",
        "rchi"
      ],
      [
        "te",
        "ct"
      ],
      [
        "Ġ1",
        "1"
      ],
      [
        "Ġco",
        "gni"
      ],
      [
        "gra",
        "tion"
      ],
      [
        "Ġso",
        "ft"
      ],
      [
        "transform",
        "er"
      ],
      [
        "Ġarchi",
        "tect"
      ],
      [
        "Ġarchitect",
        "ure"
      ],
      [
        "4",
        "8"
      ],
      [
        "Ġs",
        "tep"
      ],
      [
        "ĠĠĠĠ",
        "ĠĠĠ"
      ],
      [
        "il",
        "ation"
      ],
      [
        "Ġcomp",
        "ilation"
      ],
      [
        "tic",
        "s"
      ],
      [
        "m",
        "or"
      ],
      [
        "Ġin",
        "ser"
      ],
      [
        "Ġpo",
        "ly"
      ],
      [
        "ph",
        "is"
      ],
      [
        "Ġmat",
        "Ã©ri"
      ],
      [
        "mor",
        "phis"
      ],
      [
        "Ġinser",
        "tion"
      ],
      [
        "Ġpoly",
        "morphis"
      ],
      [
        "l",
        "ing"
      ],
      [
        "Ġ",
        ":"
      ],
      [
        "Ġs",
        "amp"
      ],
      [
        "Ġde",
        "pend"
      ],
      [
        "Ġf",
        "o"
      ],
      [
        "entraÃ®",
        "nement"
      ],
      [
        "Ġsamp",
        "ling"
      ],
      [
        "Ġdepend",
        "enc"
      ],
      [
        "o",
        "b"
      ],
      [
        "re",
        "e"
      ],
      [
        "Ġm",
        "ob"
      ],
      [
        "Ġb",
        "o"
      ],
      [
        "09",
        "0"
      ],
      [
        "3",
        "8"
      ],
      [
        "a",
        "ction"
      ],
      [
        "l",
        "ayer"
      ],
      [
        "Ġtrans",
        "action"
      ],
      [
        "Ġtransform",
        "er"
      ],
      [
        "a",
        "is"
      ],
      [
        "it",
        "or"
      ],
      [
        "Ġre",
        "c"
      ],
      [
        "Ġmon",
        "itor"
      ],
      [
        "a",
        "ce"
      ],
      [
        "f",
        "ace"
      ],
      [
        "n",
        "chron"
      ],
      [
        "y",
        "nchron"
      ],
      [
        "er",
        "y"
      ],
      [
        "Ġf",
        "e"
      ],
      [
        "ap",
        "sul"
      ],
      [
        "ĠrÃ©",
        "se"
      ],
      [
        "Ġenc",
        "apsul"
      ],
      [
        "Ġinter",
        "face"
      ],
      [
        "Ġas",
        "ynchron"
      ],
      [
        "Ġencapsul",
        "ation"
      ],
      [
        "Ġ",
        "Z"
      ],
      [
        "ll",
        "able"
      ],
      [
        "ck",
        "age"
      ],
      [
        "Ġpa",
        "ckage"
      ],
      [
        "ĠprÃ©",
        "cision"
      ],
      [
        "Ġclassi",
        "fication"
      ],
      [
        "Ġad",
        "vers"
      ],
      [
        "Ġnu",
        "llable"
      ],
      [
        "te",
        "x"
      ],
      [
        "Ġm",
        "ute"
      ],
      [
        "Ġcon",
        "tex"
      ],
      [
        "se",
        "ction"
      ],
      [
        "Ġinter",
        "section"
      ],
      [
        "Ġmute",
        "x"
      ],
      [
        "T",
        "X"
      ],
      [
        "b",
        "y"
      ],
      [
        "Ġb",
        "f"
      ],
      [
        "Ġb",
        "its"
      ],
      [
        "ĠR",
        "TX"
      ],
      [
        "Ġ3",
        "090"
      ],
      [
        "and",
        "by"
      ],
      [
        "Ġbits",
        "andby"
      ],
      [
        "Ġbitsandby",
        "tes"
      ],
      [
        "l",
        "r"
      ],
      [
        "d",
        "it"
      ],
      [
        "Ġ",
        "fil"
      ],
      [
        "Ġau",
        "dit"
      ],
      [
        "ac",
        "c"
      ],
      [
        "vel",
        "op"
      ],
      [
        "u",
        "st"
      ],
      [
        "Ġcl",
        "ust"
      ],
      [
        "Ġsyn",
        "chron"
      ],
      [
        "Ġclust",
        "ering"
      ],
      [
        "f",
        "o"
      ],
      [
        "Ġ",
        "tim"
      ],
      [
        "re",
        "ed"
      ],
      [
        "Ġt",
        "un"
      ],
      [
        "or",
        "d"
      ],
      [
        "Ġg",
        "reed"
      ],
      [
        "Ġal",
        "er"
      ],
      [
        "gg",
        "ing"
      ],
      [
        "Ġtim",
        "es"
      ],
      [
        "Ġtun",
        "nel"
      ],
      [
        "Ġgreed",
        "y"
      ],
      [
        "b",
        "j"
      ],
      [
        "Ġo",
        "bj"
      ],
      [
        "c",
        "onfig"
      ],
      [
        "d",
        "en"
      ],
      [
        "d",
        "ex"
      ],
      [
        "g",
        "ation"
      ],
      [
        "Ġin",
        "dex"
      ],
      [
        "gres",
        "sion"
      ],
      [
        "id",
        "den"
      ],
      [
        "9",
        "2"
      ],
      [
        "D",
        "T"
      ],
      [
        "i",
        "p"
      ],
      [
        "Ġp",
        "ip"
      ],
      [
        "el",
        "ine"
      ],
      [
        "Ġcon",
        "vergence"
      ],
      [
        "Ġpro",
        "gra"
      ],
      [
        "ĠE",
        "DT"
      ],
      [
        "Ġpip",
        "eline"
      ],
      [
        "Ġprogra",
        "m"
      ],
      [
        "e",
        "p"
      ],
      [
        "inf",
        "o"
      ],
      [
        "ĠD",
        "e"
      ],
      [
        "_",
        "_"
      ],
      [
        "g",
        "rÃ©"
      ],
      [
        "Ġa",
        "grÃ©"
      ],
      [
        "Ġmod",
        "ule"
      ],
      [
        "Ġ0",
        "9"
      ],
      [
        "Ġ20",
        "1"
      ],
      [
        "erial",
        "ization"
      ],
      [
        "c",
        "ri"
      ],
      [
        "n",
        "n"
      ],
      [
        "Ġ0",
        "2"
      ],
      [
        "Ġ0",
        "8"
      ],
      [
        "Ġdis",
        "cri"
      ],
      [
        "Ġdiscri",
        "min"
      ],
      [
        "Ġt",
        "ri"
      ],
      [
        "Ġcompo",
        "sition"
      ],
      [
        "Ġdim",
        "ension"
      ],
      [
        "Ġnu",
        "cle"
      ],
      [
        "Ġnucle",
        "us"
      ],
      [
        "Ġm",
        "ig"
      ],
      [
        "si",
        "te"
      ],
      [
        "Ġ0",
        "5"
      ],
      [
        "ati",
        "s"
      ],
      [
        "Ġst",
        "ate"
      ],
      [
        "Ġst",
        "atis"
      ],
      [
        "Ġmig",
        "ration"
      ],
      [
        "di",
        "ction"
      ],
      [
        "Ġimp",
        "ort"
      ],
      [
        "g",
        "ine"
      ],
      [
        "Ġen",
        "gine"
      ],
      [
        "Ġengine",
        "ering"
      ],
      [
        "2",
        "0"
      ],
      [
        "ur",
        "n"
      ],
      [
        "Ġ0",
        "6"
      ],
      [
        "che",
        "ckpo"
      ],
      [
        "checkpo",
        "int"
      ],
      [
        "t",
        "ensor"
      ],
      [
        "st",
        "atus"
      ],
      [
        "Ġcon",
        "curr"
      ],
      [
        "Ġ0",
        "7"
      ],
      [
        "un",
        "ction"
      ],
      [
        "d",
        "ata"
      ],
      [
        "o",
        "ciation"
      ],
      [
        "Ġ0",
        "1"
      ],
      [
        "me",
        "an"
      ],
      [
        "Ġass",
        "ociation"
      ],
      [
        "Ġtrans",
        "fer"
      ],
      [
        "i",
        "able"
      ],
      [
        "n",
        "orm"
      ],
      [
        "ar",
        "iable"
      ],
      [
        "ed",
        "ge"
      ],
      [
        "Ġv",
        "ariable"
      ],
      [
        "gra",
        "ph"
      ],
      [
        "Ġinst",
        "ance"
      ],
      [
        "i",
        "ds"
      ],
      [
        "in",
        "put"
      ],
      [
        "Ġ0",
        "4"
      ],
      [
        "ĠD",
        "i"
      ],
      [
        "o",
        "w"
      ],
      [
        "Ġsem",
        "i"
      ],
      [
        "Ġ0",
        "3"
      ],
      [
        "Ġclas",
        "s"
      ],
      [
        "2",
        "4"
      ],
      [
        "b",
        "lock"
      ],
      [
        "s",
        "ample"
      ],
      [
        "re",
        "ate"
      ],
      [
        "Ġc",
        "reate"
      ],
      [
        "ut",
        "er"
      ],
      [
        "Ġout",
        "put"
      ],
      [
        "Ġgra",
        "d"
      ],
      [
        "B",
        "lock"
      ],
      [
        "c",
        "to"
      ],
      [
        "o",
        "ve"
      ],
      [
        "p",
        "si"
      ],
      [
        "u",
        "ary"
      ],
      [
        "Ġ",
        "!"
      ],
      [
        "Ġ",
        "Â"
      ],
      [
        "es",
        "day"
      ],
      [
        "or",
        "g"
      ],
      [
        "Ġm",
        "ar"
      ],
      [
        "ri",
        "l"
      ],
      [
        "am",
        "ma"
      ],
      [
        "Ġ=",
        "="
      ],
      [
        "ĠT",
        "h"
      ],
      [
        "ph",
        "a"
      ],
      [
        "cto",
        "b"
      ],
      [
        "psi",
        "lon"
      ],
      [
        "n",
        "ode"
      ],
      [
        "']",
        ")"
      ],
      [
        "(",
        "'"
      ],
      [
        "d",
        "ge"
      ],
      [
        "Ġl",
        "r"
      ],
      [
        "Ġla",
        "b"
      ],
      [
        "T",
        "ensor"
      ],
      [
        "3",
        "9"
      ],
      [
        "curr",
        "ent"
      ],
      [
        "2",
        "6"
      ],
      [
        "t",
        "al"
      ],
      [
        "Ġto",
        "tal"
      ],
      [
        "4",
        "6"
      ],
      [
        "Ġs",
        "ho"
      ],
      [
        "ul",
        "d"
      ],
      [
        "Ġsho",
        "uld"
      ],
      [
        "w",
        "ard"
      ],
      [
        "batch",
        "es"
      ],
      [
        "3",
        "6"
      ],
      [
        "Ġ",
        "ge"
      ],
      [
        "Ġe",
        "poch"
      ],
      [
        "Ġde",
        "f"
      ],
      [
        "Ġge",
        "t"
      ],
      [
        "A",
        "dam"
      ],
      [
        "Ġbi",
        "as"
      ],
      [
        "2",
        "9"
      ],
      [
        "4",
        "9"
      ],
      [
        "Ġg",
        "ate"
      ],
      [
        "Ġ",
        "("
      ],
      [
        "Ġma",
        "ke"
      ],
      [
        "1",
        "9"
      ],
      [
        "3",
        "5"
      ],
      [
        "4",
        "7"
      ],
      [
        "2",
        "5"
      ],
      [
        "f",
        "fici"
      ],
      [
        "m",
        "ar"
      ],
      [
        "Ġ",
        "@"
      ],
      [
        "ti",
        "es"
      ],
      [
        "ĠL",
        "arge"
      ],
      [
        "qu",
        "ab"
      ],
      [
        "Ġe",
        "mergent"
      ],
      [
        "Ġre",
        "mar"
      ],
      [
        "Ġb",
        "uil"
      ],
      [
        "Ġex",
        "hi"
      ],
      [
        "ab",
        "ili"
      ],
      [
        "ĠÃ©",
        "mergent"
      ],
      [
        "Ġcap",
        "abili"
      ],
      [
        "Ġsu",
        "ffici"
      ],
      [
        "Ġgran",
        "de"
      ],
      [
        "Ġscal",
        "e"
      ],
      [
        "ĠcapacitÃ©",
        "s"
      ],
      [
        "ĠÃ©ch",
        "elle"
      ],
      [
        "quab",
        "les"
      ],
      [
        "Ġremar",
        "quables"
      ],
      [
        "Ġbuil",
        "d"
      ],
      [
        "Ġexhi",
        "bit"
      ],
      [
        "Ġcapabili",
        "ties"
      ],
      [
        "Ġsuffici",
        "ent"
      ],
      [
        "Ġ",
        "]"
      ],
      [
        "Ġs",
        "et"
      ],
      [
        "1",
        "7"
      ],
      [
        "4",
        "0"
      ],
      [
        "Ġh",
        "as"
      ],
      [
        "2",
        "7"
      ],
      [
        "n",
        "et"
      ],
      [
        "L",
        "ist"
      ],
      [
        "en",
        "te"
      ],
      [
        "in",
        "s"
      ],
      [
        "Ġm",
        "om"
      ],
      [
        "ent",
        "um"
      ],
      [
        "Ġre",
        "ma"
      ],
      [
        "ĠS",
        "to"
      ],
      [
        "Ġres",
        "te"
      ],
      [
        "Ġsto",
        "chas"
      ],
      [
        "optim",
        "isation"
      ],
      [
        "chas",
        "tic"
      ],
      [
        "Ġdesc",
        "ent"
      ],
      [
        "Ġdesc",
        "ente"
      ],
      [
        "Ġdomin",
        "ant"
      ],
      [
        "Ġdomin",
        "ante"
      ],
      [
        "Ġmom",
        "entum"
      ],
      [
        "Ġrema",
        "ins"
      ],
      [
        "ĠSto",
        "chastic"
      ],
      [
        "Ġstochas",
        "tique"
      ],
      [
        "si",
        "teur"
      ],
      [
        "Ġcompo",
        "ser"
      ],
      [
        "Ġcompo",
        "siteur"
      ],
      [
        "Ġhyperdimension",
        "al"
      ],
      [
        "Ġhyperdimension",
        "nel"
      ],
      [
        "3",
        "7"
      ],
      [
        "a",
        "ires"
      ],
      [
        "e",
        "arch"
      ],
      [
        "l",
        "in"
      ],
      [
        "n",
        "ex"
      ],
      [
        "p",
        "lin"
      ],
      [
        "on",
        "t"
      ],
      [
        "es",
        "idual"
      ],
      [
        "Ġs",
        "ont"
      ],
      [
        "Ġa",
        "re"
      ],
      [
        "Ġa",
        "rti"
      ],
      [
        "si",
        "du"
      ],
      [
        "fi",
        "que"
      ],
      [
        "ction",
        "s"
      ],
      [
        "Ġcon",
        "ne"
      ],
      [
        "Ġcon",
        "nex"
      ],
      [
        "fic",
        "ial"
      ],
      [
        "ĠR",
        "esidual"
      ],
      [
        "ĠrÃ©",
        "sidu"
      ],
      [
        "ci",
        "plin"
      ],
      [
        "ire",
        "d"
      ],
      [
        "Ġtransform",
        "e"
      ],
      [
        "Ġtransform",
        "s"
      ],
      [
        "Ġtop",
        "k"
      ],
      [
        "Ġma",
        "x"
      ],
      [
        "ion",
        "s"
      ],
      [
        "ĠA",
        "rti"
      ],
      [
        "cess",
        "aires"
      ],
      [
        "Ġres",
        "earch"
      ],
      [
        "Ġinte",
        "lligence"
      ],
      [
        "Ġrequ",
        "ired"
      ],
      [
        "Ġdis",
        "ciplin"
      ],
      [
        "fici",
        "elle"
      ],
      [
        "Ġmoder",
        "n"
      ],
      [
        "Ġmoder",
        "ne"
      ],
      [
        "Ġscienti",
        "fic"
      ],
      [
        "Ġscienti",
        "fique"
      ],
      [
        "inte",
        "lligence"
      ],
      [
        "ĠnÃ©",
        "cessaires"
      ],
      [
        "Ġarti",
        "ficielle"
      ],
      [
        "Ġconne",
        "ctions"
      ],
      [
        "Ġconnex",
        "ions"
      ],
      [
        "ĠrÃ©sidu",
        "elles"
      ],
      [
        "ĠArti",
        "ficial"
      ],
      [
        "Ġdisciplin",
        "es"
      ],
      [
        "5",
        "6"
      ],
      [
        "V",
        "e"
      ],
      [
        "i",
        "elles"
      ],
      [
        "r",
        "ent"
      ],
      [
        "Ġ",
        "ve"
      ],
      [
        "Ġ",
        "Ve"
      ],
      [
        "Ġb",
        "ases"
      ],
      [
        "Ã¨",
        "rent"
      ],
      [
        "igh",
        "ts"
      ],
      [
        "we",
        "ights"
      ],
      [
        "dimension",
        "al"
      ],
      [
        "ĠaccÃ©l",
        "Ã¨rent"
      ],
      [
        "Ġembedding",
        "s"
      ],
      [
        "ctor",
        "ielles"
      ],
      [
        "Ġdatab",
        "ases"
      ],
      [
        "Ġve",
        "ctorielles"
      ],
      [
        "ĠVe",
        "ctor"
      ],
      [
        "U",
        "ser"
      ],
      [
        "d",
        "rement"
      ],
      [
        "e",
        "ff"
      ],
      [
        "f",
        "it"
      ],
      [
        "m",
        "all"
      ],
      [
        "p",
        "ression"
      ],
      [
        "on",
        "drement"
      ],
      [
        "Ġd",
        "ropout"
      ],
      [
        "ra",
        "pp"
      ],
      [
        "Ġs",
        "mall"
      ],
      [
        "Ġt",
        "ail"
      ],
      [
        "Ġre",
        "gular"
      ],
      [
        "ll",
        "ap"
      ],
      [
        "com",
        "pression"
      ],
      [
        "ĠrÃ©",
        "gular"
      ],
      [
        "Ġper",
        "te"
      ],
      [
        "ĠÃ©",
        "vi"
      ],
      [
        "un",
        "t"
      ],
      [
        "Ġco",
        "llap"
      ],
      [
        "Ġco",
        "unt"
      ],
      [
        "Ġcomp",
        "ression"
      ],
      [
        "ĠprÃ©",
        "vi"
      ],
      [
        "ĠM",
        "odel"
      ],
      [
        "ĠD",
        "ropout"
      ],
      [
        "Ġsu",
        "rapp"
      ],
      [
        "Ġqual",
        "ity"
      ],
      [
        "Ġover",
        "fit"
      ],
      [
        "Ġauxili",
        "ary"
      ],
      [
        "Ġauxili",
        "aire"
      ],
      [
        "Ġsignific",
        "ant"
      ],
      [
        "Ġsignific",
        "ative"
      ],
      [
        "Ġdataset",
        "s"
      ],
      [
        "eff",
        "ondrement"
      ],
      [
        "Ġtail",
        "le"
      ],
      [
        "Ġregular",
        "ization"
      ],
      [
        "ĠrÃ©gular",
        "isation"
      ],
      [
        "ĠÃ©vi",
        "te"
      ],
      [
        "Ġcollap",
        "se"
      ],
      [
        "ĠprÃ©vi",
        "ent"
      ],
      [
        "Ġsurapp",
        "rentissage"
      ],
      [
        "Ġoverfit",
        "ting"
      ],
      [
        "i",
        "ve"
      ],
      [
        "v",
        "ail"
      ],
      [
        "ce",
        "dure"
      ],
      [
        "Ġe",
        "pisodi"
      ],
      [
        "Ġn",
        "ive"
      ],
      [
        "Ġcon",
        "ver"
      ],
      [
        "Ġpro",
        "cedure"
      ],
      [
        "Ġw",
        "ork"
      ],
      [
        "ĠÃ©",
        "pisodi"
      ],
      [
        "Ġth",
        "ree"
      ],
      [
        "Ġ202",
        "6"
      ],
      [
        "Ġtra",
        "vail"
      ],
      [
        "Ġtro",
        "is"
      ],
      [
        "Ġgroup",
        "ing"
      ],
      [
        "ĠhiÃ©rarchi",
        "que"
      ],
      [
        "Ġepisodi",
        "c"
      ],
      [
        "Ġnive",
        "aux"
      ],
      [
        "Ġconver",
        "t"
      ],
      [
        "Ġwork",
        "ing"
      ],
      [
        "ĠÃ©pisodi",
        "que"
      ],
      [
        "i",
        "ences"
      ],
      [
        "m",
        "es"
      ],
      [
        "p",
        "Ã©ri"
      ],
      [
        "s",
        "te"
      ],
      [
        "u",
        "til"
      ],
      [
        "Ġ",
        "-"
      ],
      [
        "on",
        "aliz"
      ],
      [
        "er",
        "ce"
      ],
      [
        "Ġp",
        "lat"
      ],
      [
        "st",
        "Ã¨"
      ],
      [
        "ex",
        "pÃ©ri"
      ],
      [
        "form",
        "s"
      ],
      [
        "alis",
        "ent"
      ],
      [
        "Ġexper",
        "iences"
      ],
      [
        "Ġsy",
        "ste"
      ],
      [
        "Ġsy",
        "stÃ¨"
      ],
      [
        "end",
        "er"
      ],
      [
        "comm",
        "erce"
      ],
      [
        "comm",
        "ender"
      ],
      [
        "Ġutilis",
        "ateur"
      ],
      [
        "onn",
        "alisent"
      ],
      [
        "Ġpers",
        "onaliz"
      ],
      [
        "Ġpers",
        "onnalisent"
      ],
      [
        "ĠRe",
        "commender"
      ],
      [
        "Ġrecommand",
        "ation"
      ],
      [
        "Ġauthenti",
        "cation"
      ],
      [
        "util",
        "s"
      ],
      [
        "Ġplat",
        "forms"
      ],
      [
        "expÃ©ri",
        "ence"
      ],
      [
        "Ġsyste",
        "ms"
      ],
      [
        "ĠsystÃ¨",
        "mes"
      ],
      [
        "Ġpersonaliz",
        "e"
      ],
      [
        "Ġlo",
        "ck"
      ],
      [
        "Ġ3",
        "0"
      ],
      [
        "Ġf",
        "ind"
      ],
      [
        "Ġdele",
        "te"
      ],
      [
        "a",
        "f"
      ],
      [
        "f",
        "orcement"
      ],
      [
        "i",
        "ore"
      ],
      [
        "m",
        "Ã©l"
      ],
      [
        "p",
        "k"
      ],
      [
        "u",
        "els"
      ],
      [
        "Ġ",
        "ren"
      ],
      [
        "in",
        "di"
      ],
      [
        "Ġs",
        "af"
      ],
      [
        "Ġa",
        "mÃ©l"
      ],
      [
        "al",
        "ig"
      ],
      [
        "an",
        "ts"
      ],
      [
        "ro",
        "ves"
      ],
      [
        "et",
        "y"
      ],
      [
        "ed",
        "back"
      ],
      [
        "Ġ20",
        "30"
      ],
      [
        "ĠsÃ©",
        "cur"
      ],
      [
        "to",
        "pk"
      ],
      [
        "Ġv",
        "irt"
      ],
      [
        "Ġ202",
        "5"
      ],
      [
        "Ġimp",
        "roves"
      ],
      [
        "ĠRe",
        "inforcement"
      ],
      [
        "Ġassist",
        "ant"
      ],
      [
        "Ġassist",
        "ants"
      ],
      [
        "Ġfe",
        "edback"
      ],
      [
        "Ġren",
        "forcement"
      ],
      [
        "indi",
        "ces"
      ],
      [
        "Ġsaf",
        "ety"
      ],
      [
        "ĠamÃ©l",
        "iore"
      ],
      [
        "alig",
        "nement"
      ],
      [
        "ĠsÃ©cur",
        "itÃ©"
      ],
      [
        "Ġvirt",
        "uels"
      ],
      [
        "a",
        "que"
      ],
      [
        "c",
        "s"
      ],
      [
        "h",
        "ort"
      ],
      [
        "h",
        "aque"
      ],
      [
        "j",
        "o"
      ],
      [
        "m",
        "i"
      ],
      [
        "n",
        "alise"
      ],
      [
        "r",
        "uit"
      ],
      [
        "s",
        "is"
      ],
      [
        "u",
        "x"
      ],
      [
        "v",
        "iter"
      ],
      [
        "en",
        "aliz"
      ],
      [
        "Ã©",
        "nalise"
      ],
      [
        "Ġd",
        "ans"
      ],
      [
        "Ġs",
        "entiment"
      ],
      [
        "Ġs",
        "hort"
      ],
      [
        "Ġp",
        "enaliz"
      ],
      [
        "Ġp",
        "Ã©nalise"
      ],
      [
        "Ġa",
        "jo"
      ],
      [
        "Ġl",
        "arge"
      ],
      [
        "Ġc",
        "an"
      ],
      [
        "Ġc",
        "haque"
      ],
      [
        "an",
        "aly"
      ],
      [
        "an",
        "ciation"
      ],
      [
        "Ġe",
        "ight"
      ],
      [
        "Ġe",
        "motions"
      ],
      [
        "ur",
        "ts"
      ],
      [
        "Ġde",
        "ux"
      ],
      [
        "Ġh",
        "uit"
      ],
      [
        "di",
        "a"
      ],
      [
        "Ġb",
        "ruit"
      ],
      [
        "ri",
        "cs"
      ],
      [
        "ĠS",
        "entiment"
      ],
      [
        "ĠÃ©",
        "motions"
      ],
      [
        "ĠÃ©",
        "viter"
      ],
      [
        "rain",
        "t"
      ],
      [
        "Ġco",
        "urts"
      ],
      [
        "Ġpar",
        "mi"
      ],
      [
        "Ġsel",
        "ec"
      ],
      [
        "ma",
        "x"
      ],
      [
        "Ġtex",
        "ts"
      ],
      [
        "Ġtex",
        "tes"
      ],
      [
        "ois",
        "y"
      ],
      [
        "Ġso",
        "cial"
      ],
      [
        "Ġgener",
        "ate"
      ],
      [
        "Ġad",
        "ds"
      ],
      [
        "Ġinst",
        "anciation"
      ],
      [
        "ĠN",
        "oisy"
      ],
      [
        "Ġmet",
        "rics"
      ],
      [
        "ĠsÃ©lection",
        "ne"
      ],
      [
        "Ġanaly",
        "sis"
      ],
      [
        "Ġconst",
        "raint"
      ],
      [
        "Ġgran",
        "ds"
      ],
      [
        "Ġtro",
        "p"
      ],
      [
        "Ġgroup",
        "ement"
      ],
      [
        "Ġnois",
        "e"
      ],
      [
        "Ġnois",
        "y"
      ],
      [
        "Ġclassifi",
        "e"
      ],
      [
        "Ġclassifi",
        "es"
      ],
      [
        "Ġgaussi",
        "en"
      ],
      [
        "Ġgaussi",
        "an"
      ],
      [
        "Ġtw",
        "o"
      ],
      [
        "Ġme",
        "dia"
      ],
      [
        "Ġaggre",
        "gate"
      ],
      [
        "Ġsoft",
        "max"
      ],
      [
        "Ġsentiment",
        "s"
      ],
      [
        "Ġpenaliz",
        "es"
      ],
      [
        "Ġajo",
        "ute"
      ],
      [
        "analy",
        "se"
      ],
      [
        "Ġselec",
        "ts"
      ],
      [
        ")",
        "."
      ],
      [
        "a",
        "ds"
      ],
      [
        "Ġ",
        "tier"
      ],
      [
        "Ġre",
        "ads"
      ],
      [
        "Ġf",
        "unction"
      ],
      [
        "Ã¨",
        "les"
      ],
      [
        "Ġle",
        "ct"
      ],
      [
        "Ġparall",
        "Ã¨les"
      ],
      [
        "Ġvalid",
        "ate"
      ],
      [
        "Ġchi",
        "ffrement"
      ],
      [
        "Ġprofil",
        "age"
      ],
      [
        "Ġlect",
        "ures"
      ],
      [
        "M",
        "od"
      ],
      [
        "m",
        "ask"
      ],
      [
        "re",
        "qu"
      ],
      [
        "al",
        "ization"
      ],
      [
        "Ġenc",
        "ryption"
      ],
      [
        "Ġ4",
        "0"
      ],
      [
        "Ġso",
        "us"
      ],
      [
        "Ġnorm",
        "alization"
      ],
      [
        "Ġappli",
        "es"
      ],
      [
        "Ġappli",
        "que"
      ],
      [
        "ĠsÃ©qu",
        "ence"
      ],
      [
        "Mod",
        "ule"
      ],
      [
        "requ",
        "Ãªte"
      ],
      [
        "s",
        "um"
      ],
      [
        "v",
        "ra"
      ],
      [
        "er",
        "ence"
      ],
      [
        "is",
        "on"
      ],
      [
        "Ġ5",
        "0"
      ],
      [
        "ĠsÃ©m",
        "aphore"
      ],
      [
        "Ġdiff",
        "erence"
      ],
      [
        "Ġli",
        "vra"
      ],
      [
        "Ġlivra",
        "ison"
      ],
      [
        "1",
        "0"
      ],
      [
        "5",
        "8"
      ],
      [
        "ĠmÃ©",
        "th"
      ],
      [
        "ĠmÃ©th",
        "ode"
      ],
      [
        "b",
        "og"
      ],
      [
        "h",
        "er"
      ],
      [
        "es",
        "ting"
      ],
      [
        "Ġt",
        "esting"
      ],
      [
        "it",
        "ance"
      ],
      [
        "Ġin",
        "her"
      ],
      [
        "ĠdÃ©",
        "bog"
      ],
      [
        "Ġinher",
        "itance"
      ],
      [
        "ĠdÃ©bog",
        "age"
      ],
      [
        "f",
        "lo"
      ],
      [
        "m",
        "ati"
      ],
      [
        "p",
        "Ã©"
      ],
      [
        "t",
        "ri"
      ],
      [
        "Ġ",
        "ver"
      ],
      [
        "Ġ",
        "range"
      ],
      [
        "Ã©",
        "s"
      ],
      [
        "Ġd",
        "ra"
      ],
      [
        "Ġd",
        "op"
      ],
      [
        "Ġs",
        "pÃ©"
      ],
      [
        "at",
        "ors"
      ],
      [
        "di",
        "ct"
      ],
      [
        "ck",
        "Ã©e"
      ],
      [
        "alis",
        "Ã©s"
      ],
      [
        "ci",
        "alisÃ©s"
      ],
      [
        "cal",
        "ly"
      ],
      [
        "Ġ202",
        "4"
      ],
      [
        "ĠmÃ©",
        "tri"
      ],
      [
        "Ã©ra",
        "teurs"
      ],
      [
        "Ġsto",
        "ckÃ©e"
      ],
      [
        "Ġperform",
        "ances"
      ],
      [
        "ĠaccÃ©l",
        "Ã©rateurs"
      ],
      [
        "Ġacceler",
        "ators"
      ],
      [
        "Ġdatab",
        "ase"
      ],
      [
        "cial",
        "ized"
      ],
      [
        "Ġthrough",
        "put"
      ],
      [
        "ĠSpe",
        "cialized"
      ],
      [
        "ĠmatÃ©ri",
        "els"
      ],
      [
        "Ġpolymorphis",
        "me"
      ],
      [
        "Ġbo",
        "ost"
      ],
      [
        "Ġcontex",
        "t"
      ],
      [
        "flo",
        "at"
      ],
      [
        "mati",
        "cally"
      ],
      [
        "Ġver",
        "rou"
      ],
      [
        "Ġdra",
        "matically"
      ],
      [
        "Ġdop",
        "ent"
      ],
      [
        "ĠspÃ©",
        "cialisÃ©s"
      ],
      [
        "ĠmÃ©tri",
        "que"
      ],
      [
        "b",
        "as"
      ],
      [
        "c",
        "ross"
      ],
      [
        "g",
        "es"
      ],
      [
        "i",
        "ma"
      ],
      [
        "i",
        "teur"
      ],
      [
        "m",
        "age"
      ],
      [
        "m",
        "Ã¨"
      ],
      [
        "p",
        "y"
      ],
      [
        "en",
        "ds"
      ],
      [
        "es",
        "is"
      ],
      [
        "re",
        "alis"
      ],
      [
        "Ġp",
        "ho"
      ],
      [
        "Ġp",
        "hot"
      ],
      [
        "ro",
        "py"
      ],
      [
        "ent",
        "y"
      ],
      [
        "ent",
        "ropy"
      ],
      [
        "ing",
        "t"
      ],
      [
        "Ġpro",
        "duit"
      ],
      [
        "Ġpro",
        "duces"
      ],
      [
        "Ġro",
        "ute"
      ],
      [
        "res",
        "olution"
      ],
      [
        "Ã¨",
        "se"
      ],
      [
        "ĠrÃ©",
        "sul"
      ],
      [
        "alis",
        "tes"
      ],
      [
        "to",
        "realis"
      ],
      [
        "Ġv",
        "ingt"
      ],
      [
        "Ġpara",
        "mÃ¨"
      ],
      [
        "Ġclas",
        "se"
      ],
      [
        "ff",
        "usion"
      ],
      [
        "Ġacti",
        "f"
      ],
      [
        "tat",
        "s"
      ],
      [
        "Ġi",
        "mage"
      ],
      [
        "Ġrecomm",
        "ends"
      ],
      [
        "Ġcheckpo",
        "int"
      ],
      [
        "Ġuni",
        "on"
      ],
      [
        "Ġmon",
        "iteur"
      ],
      [
        "Ġrecommand",
        "e"
      ],
      [
        "Ġtw",
        "enty"
      ],
      [
        "Ġdiff",
        "usion"
      ],
      [
        "Ġsynth",
        "esis"
      ],
      [
        "Ġsynth",
        "Ã¨se"
      ],
      [
        "orÃ©",
        "alistes"
      ],
      [
        "Ġattrib",
        "ut"
      ],
      [
        "ĠdÃ©pend",
        "ance"
      ],
      [
        "ĠDi",
        "ffusion"
      ],
      [
        "Ġoutput",
        "s"
      ],
      [
        "bas",
        "ed"
      ],
      [
        "ima",
        "ges"
      ],
      [
        "Ġpho",
        "torealis"
      ],
      [
        "Ġphot",
        "orÃ©alistes"
      ],
      [
        "Ġroute",
        "ur"
      ],
      [
        "ĠrÃ©sul",
        "tats"
      ],
      [
        "ĠparamÃ¨",
        "tre"
      ],
      [
        "Ġphotorealis",
        "tic"
      ],
      [
        "i",
        "ement"
      ],
      [
        "t",
        "orch"
      ],
      [
        "t",
        "ary"
      ],
      [
        "u",
        "ral"
      ],
      [
        "u",
        "tif"
      ],
      [
        "v",
        "ol"
      ],
      [
        "z",
        "ation"
      ],
      [
        "on",
        "dition"
      ],
      [
        "er",
        "ves"
      ],
      [
        "Ġp",
        "res"
      ],
      [
        "is",
        "ms"
      ],
      [
        "Ġm",
        "ask"
      ],
      [
        "an",
        "isms"
      ],
      [
        "ch",
        "anisms"
      ],
      [
        "at",
        "ural"
      ],
      [
        "fi",
        "gu"
      ],
      [
        "Ġn",
        "ature"
      ],
      [
        "Ġn",
        "atural"
      ],
      [
        "Ġre",
        "volution"
      ],
      [
        "Ġcon",
        "vol"
      ],
      [
        "Ġcon",
        "figu"
      ],
      [
        "enc",
        "odage"
      ],
      [
        "ĠrÃ©",
        "volution"
      ],
      [
        "Ġpo",
        "st"
      ],
      [
        "ĠT",
        "ransform"
      ],
      [
        "ati",
        "f"
      ],
      [
        "ĠdÃ©",
        "plo"
      ],
      [
        "ser",
        "ve"
      ],
      [
        "Ġaut",
        "ore"
      ],
      [
        "Ġaut",
        "orÃ©"
      ],
      [
        "Ġencod",
        "ing"
      ],
      [
        "ĠprÃ©",
        "serve"
      ],
      [
        "eur",
        "s"
      ],
      [
        "Ġtransform",
        "eurs"
      ],
      [
        "Ġon",
        "e"
      ],
      [
        "Ġon",
        "t"
      ],
      [
        "ĠC",
        "ondition"
      ],
      [
        "ĠRo",
        "tary"
      ],
      [
        "nel",
        "le"
      ],
      [
        "Ġtex",
        "t"
      ],
      [
        "Ġtex",
        "te"
      ],
      [
        "Ġtra",
        "ite"
      ],
      [
        "ĠP",
        "ost"
      ],
      [
        "gressi",
        "f"
      ],
      [
        "Ġlon",
        "ger"
      ],
      [
        "Ġposition",
        "al"
      ],
      [
        "Ġposition",
        "nel"
      ],
      [
        "Ġinte",
        "ger"
      ],
      [
        "Ġinte",
        "gration"
      ],
      [
        "lat",
        "es"
      ],
      [
        "Ġanaly",
        "tics"
      ],
      [
        "Ġsequ",
        "ences"
      ],
      [
        "Ġcondition",
        "nelle"
      ],
      [
        "ĠdÃ©c",
        "odage"
      ],
      [
        "Ġscal",
        "ing"
      ],
      [
        "Ġme",
        "chanisms"
      ],
      [
        "Ġprocess",
        "ing"
      ],
      [
        "ĠsÃ©qu",
        "ences"
      ],
      [
        "Ġattrib",
        "ute"
      ],
      [
        "Ġexplo",
        "its"
      ],
      [
        "Ġexplo",
        "ite"
      ],
      [
        "Ġquanti",
        "fication"
      ],
      [
        "Ġquanti",
        "zation"
      ],
      [
        "Ġextrapo",
        "l"
      ],
      [
        "Ġextrapo",
        "lates"
      ],
      [
        "Ġrot",
        "atif"
      ],
      [
        "Ġpres",
        "erves"
      ],
      [
        "Ġnature",
        "l"
      ],
      [
        "Ġrevolution",
        "ized"
      ],
      [
        "Ġconvol",
        "utif"
      ],
      [
        "Ġconfigu",
        "ration"
      ],
      [
        "ĠrÃ©volution",
        "nÃ©"
      ],
      [
        "ĠTransform",
        "ers"
      ],
      [
        "ĠdÃ©plo",
        "iement"
      ],
      [
        "Ġautore",
        "gressive"
      ],
      [
        "ĠautorÃ©",
        "gressif"
      ],
      [
        "ĠCondition",
        "al"
      ],
      [
        "Ġtraite",
        "ment"
      ],
      [
        "4",
        "4"
      ],
      [
        "c",
        "teurs"
      ],
      [
        "j",
        "or"
      ],
      [
        "l",
        "ation"
      ],
      [
        "al",
        "e"
      ],
      [
        "al",
        "s"
      ],
      [
        "du",
        "cteurs"
      ],
      [
        "Ġpa",
        "ir"
      ],
      [
        "Ġtrans",
        "lat"
      ],
      [
        "Ġtrans",
        "lation"
      ],
      [
        "Ġma",
        "jor"
      ],
      [
        "Ġhum",
        "ain"
      ],
      [
        "Ġtra",
        "duction"
      ],
      [
        "Ġtra",
        "ducteurs"
      ],
      [
        "ĠN",
        "eural"
      ],
      [
        "Ġriv",
        "alise"
      ],
      [
        "Ġriv",
        "als"
      ],
      [
        "Ġneuron",
        "ale"
      ],
      [
        "Ġpair",
        "s"
      ],
      [
        "Ġtranslat",
        "ors"
      ],
      [
        "Ġhumain",
        "s"
      ],
      [
        "l",
        "us"
      ],
      [
        "p",
        "id"
      ],
      [
        "u",
        "ch"
      ],
      [
        "y",
        "ers"
      ],
      [
        "Ġ",
        "que"
      ],
      [
        "er",
        "m"
      ],
      [
        "Ġp",
        "lus"
      ],
      [
        "Ġt",
        "erm"
      ],
      [
        "Ġre",
        "mo"
      ],
      [
        "as",
        "ter"
      ],
      [
        "Ġf",
        "aster"
      ],
      [
        "Ġro",
        "tat"
      ],
      [
        "Ġla",
        "yers"
      ],
      [
        "Ġco",
        "uch"
      ],
      [
        "()",
        ","
      ],
      [
        "Ġth",
        "an"
      ],
      [
        "met",
        "ers"
      ],
      [
        "Ġacti",
        "ves"
      ],
      [
        "Ġan",
        "d"
      ],
      [
        "Ġra",
        "pid"
      ],
      [
        "Ġrep",
        "ort"
      ],
      [
        "para",
        "meters"
      ],
      [
        "Ġtable",
        "au"
      ],
      [
        "Ġparallel",
        "ization"
      ],
      [
        "Ġrot",
        "ate"
      ],
      [
        "Ġremo",
        "ves"
      ],
      [
        "Ġrotat",
        "es"
      ],
      [
        "Ġcouch",
        "es"
      ],
      [
        "Ġrapid",
        "e"
      ],
      [
        "=",
        "-"
      ],
      [
        "f",
        "on"
      ],
      [
        "f",
        "eu"
      ],
      [
        "i",
        "es"
      ],
      [
        "n",
        "ent"
      ],
      [
        "s",
        "entations"
      ],
      [
        "t",
        "rain"
      ],
      [
        "t",
        "ention"
      ],
      [
        "t",
        "Ãª"
      ],
      [
        "t",
        "ures"
      ],
      [
        "Ġd",
        "ist"
      ],
      [
        "Ġl",
        "ig"
      ],
      [
        "Ġm",
        "ulti"
      ],
      [
        "at",
        "tention"
      ],
      [
        "Ġin",
        "put"
      ],
      [
        "Ġb",
        "ase"
      ],
      [
        "rÃ©",
        "sentations"
      ],
      [
        "ri",
        "alisation"
      ],
      [
        "Ġcon",
        "train"
      ],
      [
        "Ġpro",
        "fon"
      ],
      [
        "res",
        "entations"
      ],
      [
        "he",
        "ad"
      ],
      [
        "Ġpa",
        "re"
      ],
      [
        "ĠsÃ©",
        "rialisation"
      ],
      [
        "enti",
        "al"
      ],
      [
        "Ġcap",
        "ture"
      ],
      [
        "Ġcap",
        "tures"
      ],
      [
        "ĠM",
        "ulti"
      ],
      [
        "Ġlon",
        "g"
      ],
      [
        "Ġapp",
        "ren"
      ],
      [
        "Ġrep",
        "rÃ©sentations"
      ],
      [
        "Ġrep",
        "resentations"
      ],
      [
        "Ġnetwork",
        "s"
      ],
      [
        "Ġsequ",
        "ential"
      ],
      [
        "ĠhiÃ©rarchi",
        "ques"
      ],
      [
        "back",
        "ward"
      ],
      [
        "ĠdÃ©pend",
        "ances"
      ],
      [
        "Ġneuron",
        "es"
      ],
      [
        "Ġdependenc",
        "ies"
      ],
      [
        "ĠrÃ©se",
        "aux"
      ],
      [
        "ĠDe",
        "ep"
      ],
      [
        "tÃª",
        "tes"
      ],
      [
        "Ġdist",
        "ances"
      ],
      [
        "Ġlig",
        "ne"
      ],
      [
        "Ġcontrain",
        "te"
      ],
      [
        "Ġprofon",
        "ds"
      ],
      [
        "Ġappren",
        "nent"
      ],
      [
        "1",
        "3"
      ],
      [
        "5",
        "9"
      ],
      [
        "c",
        "ul"
      ],
      [
        "m",
        "ut"
      ],
      [
        "o",
        "t"
      ],
      [
        "p",
        "r"
      ],
      [
        "Ġc",
        "al"
      ],
      [
        "Ġm",
        "ixture"
      ],
      [
        "as",
        "ing"
      ],
      [
        "Ġf",
        "ore"
      ],
      [
        "lo",
        "ad"
      ],
      [
        "ig",
        "n"
      ],
      [
        "Ġcom",
        "mut"
      ],
      [
        "em",
        "pre"
      ],
      [
        "Ġco",
        "st"
      ],
      [
        "Ġau",
        "gmenter"
      ],
      [
        "ĠM",
        "ixture"
      ],
      [
        "Ġinter",
        "pre"
      ],
      [
        "au",
        "gmenter"
      ],
      [
        "Ġcapac",
        "ity"
      ],
      [
        "Ġpri",
        "x"
      ],
      [
        "Ġincre",
        "ases"
      ],
      [
        "Ġincre",
        "asing"
      ],
      [
        "Ġalgorith",
        "m"
      ],
      [
        "Ġfo",
        "ot"
      ],
      [
        "pr",
        "int"
      ],
      [
        "Ġcal",
        "cul"
      ],
      [
        "Ġfore",
        "ign"
      ],
      [
        "Ġcommut",
        "ateur"
      ],
      [
        "empre",
        "inte"
      ],
      [
        "Ġinterpre",
        "tation"
      ],
      [
        "Ġfoot",
        "print"
      ],
      [
        "b",
        "edding"
      ],
      [
        "e",
        "parable"
      ],
      [
        "i",
        "ver"
      ],
      [
        "n",
        "er"
      ],
      [
        "o",
        "c"
      ],
      [
        "p",
        "ro"
      ],
      [
        "t",
        "te"
      ],
      [
        "w",
        "s"
      ],
      [
        "Ã©",
        "ment"
      ],
      [
        "ce",
        "tte"
      ],
      [
        "Ġre",
        "cette"
      ],
      [
        "Ġh",
        "idden"
      ],
      [
        "lo",
        "ws"
      ],
      [
        "ĠS",
        "eparable"
      ],
      [
        "em",
        "bedding"
      ],
      [
        "ĠsÃ©",
        "parable"
      ],
      [
        "ĠprÃ©",
        "pro"
      ],
      [
        "Ġal",
        "lows"
      ],
      [
        "Ġdel",
        "iver"
      ],
      [
        "entraÃ®",
        "ner"
      ],
      [
        "Ġalgorith",
        "me"
      ],
      [
        "Ġisol",
        "ation"
      ],
      [
        "Ġisol",
        "Ã©ment"
      ],
      [
        "ĠprÃ©pro",
        "duction"
      ],
      [
        "Ġdeliver",
        "y"
      ],
      [
        "'",
        ")"
      ],
      [
        "8",
        "8"
      ],
      [
        "B",
        "atch"
      ],
      [
        "b",
        "qu"
      ],
      [
        "ti",
        "ve"
      ],
      [
        "Ġf",
        "f"
      ],
      [
        "Ġu",
        "ne"
      ],
      [
        "Ġcon",
        "volution"
      ],
      [
        "Ġcl",
        "Ã©"
      ],
      [
        "ron",
        "ment"
      ],
      [
        "vi",
        "ronment"
      ],
      [
        "Ġsu",
        "bqu"
      ],
      [
        "Ġun",
        "supervised"
      ],
      [
        "Ġen",
        "vironment"
      ],
      [
        "Ġcogni",
        "tif"
      ],
      [
        "Ġcogni",
        "tive"
      ],
      [
        "Ġconvolution",
        "al"
      ],
      [
        "Ġsubqu",
        "ery"
      ],
      [
        "M",
        "ap"
      ],
      [
        "Q",
        "u"
      ],
      [
        "g",
        "i"
      ],
      [
        "Ġ",
        "ke"
      ],
      [
        "Ġin",
        "fo"
      ],
      [
        "Ġb",
        "ord"
      ],
      [
        "Ġf",
        "usion"
      ],
      [
        "Ġ2",
        "1"
      ],
      [
        "Ġlo",
        "gi"
      ],
      [
        "Ġro",
        "w"
      ],
      [
        "ĠrÃ©",
        "inforcement"
      ],
      [
        "ci",
        "el"
      ],
      [
        "eu",
        "e"
      ],
      [
        "pp",
        "ort"
      ],
      [
        "Ġsem",
        "aphore"
      ],
      [
        "Ġra",
        "pport"
      ],
      [
        "Ġadvers",
        "aire"
      ],
      [
        "Ġdiscrimin",
        "ative"
      ],
      [
        "Qu",
        "eue"
      ],
      [
        "Ġke",
        "y"
      ],
      [
        "Ġlogi",
        "ciel"
      ],
      [
        "a",
        "ces"
      ],
      [
        "f",
        "fic"
      ],
      [
        "g",
        "ers"
      ],
      [
        "i",
        "le"
      ],
      [
        "i",
        "ge"
      ],
      [
        "l",
        "um"
      ],
      [
        "m",
        "an"
      ],
      [
        "p",
        "rÃ©"
      ],
      [
        "w",
        "it"
      ],
      [
        "w",
        "all"
      ],
      [
        "Ġ",
        "fi"
      ],
      [
        "en",
        "Ãª"
      ],
      [
        "Ã©",
        "gers"
      ],
      [
        "re",
        "wall"
      ],
      [
        "Ġs",
        "wit"
      ],
      [
        "Ġp",
        "Ã©ri"
      ],
      [
        "Ġl",
        "ight"
      ],
      [
        "Ġl",
        "Ã©gers"
      ],
      [
        "or",
        "ization"
      ],
      [
        "al",
        "ity"
      ],
      [
        "Ġe",
        "t"
      ],
      [
        "Ġe",
        "ffic"
      ],
      [
        "Ġde",
        "velop"
      ],
      [
        "Ġde",
        "man"
      ],
      [
        "Ġf",
        "enÃª"
      ],
      [
        "Ġex",
        "ige"
      ],
      [
        "il",
        "es"
      ],
      [
        "Ġw",
        "ind"
      ],
      [
        "Ġco",
        "lum"
      ],
      [
        "Ġcomp",
        "uter"
      ],
      [
        "ph",
        "Ã©ri"
      ],
      [
        "ter",
        "ing"
      ],
      [
        "Ġoptim",
        "ized"
      ],
      [
        "Ġinter",
        "prÃ©"
      ],
      [
        "vi",
        "ce"
      ],
      [
        "Ġauth",
        "orization"
      ],
      [
        "ĠO",
        "n"
      ],
      [
        "de",
        "vice"
      ],
      [
        "Ġchi",
        "ps"
      ],
      [
        "Ġmob",
        "ile"
      ],
      [
        "Ġmob",
        "iles"
      ],
      [
        "Ġfil",
        "tering"
      ],
      [
        "Ġsynchron",
        "ization"
      ],
      [
        "Ġdimension",
        "ality"
      ],
      [
        "Ġfi",
        "rewall"
      ],
      [
        "Ġswit",
        "ch"
      ],
      [
        "ĠpÃ©ri",
        "phÃ©ri"
      ],
      [
        "Ġlight",
        "weight"
      ],
      [
        "Ġeffic",
        "aces"
      ],
      [
        "Ġdevelop",
        "ment"
      ],
      [
        "Ġdeman",
        "ds"
      ],
      [
        "ĠfenÃª",
        "tre"
      ],
      [
        "Ġwind",
        "ow"
      ],
      [
        "Ġcolum",
        "n"
      ],
      [
        "ĠinterprÃ©",
        "tation"
      ],
      [
        "ĠpÃ©riphÃ©ri",
        "ques"
      ],
      [
        "K",
        "ind"
      ],
      [
        "S",
        "ample"
      ],
      [
        "a",
        "ine"
      ],
      [
        "e",
        "ch"
      ],
      [
        "e",
        "ight"
      ],
      [
        "o",
        "cal"
      ],
      [
        "s",
        "ance"
      ],
      [
        "v",
        "al"
      ],
      [
        "§",
        "ais"
      ],
      [
        "Ã",
        "§ais"
      ],
      [
        "Ġs",
        "erialization"
      ],
      [
        "te",
        "int"
      ],
      [
        "ation",
        "al"
      ],
      [
        "Ġre",
        "ach"
      ],
      [
        "di",
        "o"
      ],
      [
        "Ġf",
        "ran"
      ],
      [
        "Ġcon",
        "vers"
      ],
      [
        "Ġv",
        "ocal"
      ],
      [
        "Ġw",
        "eight"
      ],
      [
        "Ġaut",
        "o"
      ],
      [
        "Ġau",
        "dio"
      ],
      [
        "Ġpar",
        "ity"
      ],
      [
        "ni",
        "tion"
      ],
      [
        "ĠF",
        "ren"
      ],
      [
        "Ġhum",
        "aine"
      ],
      [
        "og",
        "nition"
      ],
      [
        "Ġat",
        "teint"
      ],
      [
        "onn",
        "ais"
      ],
      [
        "Ġdele",
        "tion"
      ],
      [
        "ĠSpe",
        "ech"
      ],
      [
        "Ġrec",
        "ognition"
      ],
      [
        "Ġrec",
        "onnais"
      ],
      [
        "Ġasynchron",
        "e"
      ],
      [
        "Ġobj",
        "et"
      ],
      [
        "Ġreach",
        "es"
      ],
      [
        "Ġfran",
        "Ã§ais"
      ],
      [
        "Ġconvers",
        "ational"
      ],
      [
        "Ġvocal",
        "e"
      ],
      [
        "ĠFren",
        "ch"
      ],
      [
        "Ġreconnais",
        "sance"
      ],
      [
        "D",
        "ata"
      ],
      [
        "G",
        "ra"
      ],
      [
        "b",
        "li"
      ],
      [
        "o",
        "us"
      ],
      [
        "o",
        "th"
      ],
      [
        "p",
        "rentissage"
      ],
      [
        "y",
        "ment"
      ],
      [
        "ti",
        "qu"
      ],
      [
        "Ã©",
        "es"
      ],
      [
        "or",
        "isation"
      ],
      [
        "el",
        "ed"
      ],
      [
        "Ġde",
        "plo"
      ],
      [
        "et",
        "Ã©es"
      ],
      [
        "Ġex",
        "amp"
      ],
      [
        "ĠS",
        "upervis"
      ],
      [
        "Ã¨",
        "que"
      ],
      [
        "ap",
        "prentissage"
      ],
      [
        "ces",
        "site"
      ],
      [
        "ĠÃ©",
        "tiqu"
      ],
      [
        "Ġaut",
        "orisation"
      ],
      [
        "Ã©l",
        "isation"
      ],
      [
        "Ġparall",
        "Ã©lisation"
      ],
      [
        "Ġrequ",
        "ires"
      ],
      [
        "Ġmat",
        "erial"
      ],
      [
        "Ġbi",
        "bli"
      ],
      [
        "ĠnÃ©",
        "cessite"
      ],
      [
        "Ġmonitor",
        "ing"
      ],
      [
        "Ġasynchron",
        "ous"
      ],
      [
        "Ġlab",
        "eled"
      ],
      [
        "Gra",
        "ph"
      ],
      [
        "oth",
        "Ã¨que"
      ],
      [
        "Ġdeplo",
        "yment"
      ],
      [
        "Ġexamp",
        "les"
      ],
      [
        "ĠSupervis",
        "ed"
      ],
      [
        "ĠÃ©tiqu",
        "etÃ©es"
      ],
      [
        "Ġmaterial",
        "ized"
      ],
      [
        "Ġbibli",
        "othÃ¨que"
      ],
      [
        "5",
        "4"
      ],
      [
        "7",
        "6"
      ],
      [
        "M",
        "odel"
      ],
      [
        "P",
        "U"
      ],
      [
        "S",
        "tat"
      ],
      [
        "T",
        "ype"
      ],
      [
        "Ã©",
        "tat"
      ],
      [
        "Ġs",
        "or"
      ],
      [
        "or",
        "te"
      ],
      [
        "is",
        "eur"
      ],
      [
        "Ġm",
        "ix"
      ],
      [
        "at",
        "re"
      ],
      [
        "Ġn",
        "ati"
      ],
      [
        "Ġn",
        "ative"
      ],
      [
        "Ġf",
        "ois"
      ],
      [
        "ll",
        "onn"
      ],
      [
        "anti",
        "llonn"
      ],
      [
        "Ġqu",
        "atre"
      ],
      [
        "ĠM",
        "ix"
      ],
      [
        "Ġpre",
        "cision"
      ],
      [
        "ort",
        "Ã©e"
      ],
      [
        "ĠG",
        "PU"
      ],
      [
        "ĠA",
        "dam"
      ],
      [
        "Ġdecod",
        "er"
      ],
      [
        "Ġrequ",
        "Ãªte"
      ],
      [
        "vel",
        "y"
      ],
      [
        "Ġsupp",
        "orte"
      ],
      [
        "Ġsupp",
        "ortÃ©e"
      ],
      [
        "optim",
        "iseur"
      ],
      [
        "ĠÃ©ch",
        "antillonn"
      ],
      [
        "Ġ+",
        "="
      ],
      [
        "Ġauthenti",
        "fication"
      ],
      [
        "Ġfo",
        "ur"
      ],
      [
        "Stat",
        "us"
      ],
      [
        "Ġsor",
        "ting"
      ],
      [
        "Ġmix",
        "te"
      ],
      [
        "Ġnati",
        "vely"
      ],
      [
        "Ġnative",
        "ment"
      ],
      [
        "ĠMix",
        "ed"
      ],
      [
        "Ġsupporte",
        "d"
      ],
      [
        "ĠÃ©chantillonn",
        "age"
      ],
      [
        "2",
        "2"
      ],
      [
        "b",
        "ra"
      ],
      [
        "r",
        "un"
      ],
      [
        "t",
        "Ã©"
      ],
      [
        "on",
        "ction"
      ],
      [
        "Ġt",
        "run"
      ],
      [
        "Ġin",
        "tÃ©"
      ],
      [
        "Ġf",
        "onction"
      ],
      [
        "Ġmod",
        "ification"
      ],
      [
        "Ġlo",
        "gging"
      ],
      [
        "ĠdÃ©",
        "chi"
      ],
      [
        "anti",
        "ation"
      ],
      [
        "Ġencod",
        "eur"
      ],
      [
        "Ġinst",
        "antiation"
      ],
      [
        "Ġanaly",
        "se"
      ],
      [
        "Ġli",
        "bra"
      ],
      [
        "Ġdependenc",
        "y"
      ],
      [
        "Ġtrun",
        "cation"
      ],
      [
        "ĠintÃ©",
        "gration"
      ],
      [
        "ĠdÃ©chi",
        "ffrement"
      ],
      [
        "Ġlibra",
        "ry"
      ],
      [
        "3",
        "2"
      ],
      [
        "c",
        "ution"
      ],
      [
        "s",
        "el"
      ],
      [
        "Ã©",
        "cution"
      ],
      [
        "ar",
        "ial"
      ],
      [
        "Ġex",
        "Ã©cution"
      ],
      [
        "vis",
        "ion"
      ],
      [
        "Ġdi",
        "vision"
      ],
      [
        "Ġoptim",
        "isation"
      ],
      [
        "Ġqu",
        "ery"
      ],
      [
        "Ġconst",
        "ante"
      ],
      [
        "Ġadvers",
        "arial"
      ],
      [
        "Ġaler",
        "te"
      ],
      [
        "Ġaler",
        "ting"
      ],
      [
        "Ġstatis",
        "tics"
      ],
      [
        "sel",
        "f"
      ],
      [
        "3",
        "4"
      ],
      [
        "b",
        "u"
      ],
      [
        "e",
        "w"
      ],
      [
        "i",
        "ew"
      ],
      [
        "Ġde",
        "bu"
      ],
      [
        "ĠrÃ©",
        "gression"
      ],
      [
        "Ġv",
        "iew"
      ],
      [
        "Ġdec",
        "ryption"
      ],
      [
        "Ġres",
        "idual"
      ],
      [
        "Ġconst",
        "ant"
      ],
      [
        "Ġsupp",
        "ression"
      ],
      [
        "Ġjo",
        "in"
      ],
      [
        "ĠagrÃ©",
        "gation"
      ],
      [
        "Ġdebu",
        "gging"
      ],
      [
        "C",
        "onfig"
      ],
      [
        "S",
        "ta"
      ],
      [
        "fi",
        "ve"
      ],
      [
        "Ġre",
        "duction"
      ],
      [
        "Ġre",
        "gression"
      ],
      [
        "ĠT",
        "raining"
      ],
      [
        "Ġth",
        "irt"
      ],
      [
        "ma",
        "ire"
      ],
      [
        "Ã©r",
        "er"
      ],
      [
        "ĠaccÃ©l",
        "Ã©rer"
      ],
      [
        "Ġsupervis",
        "ed"
      ],
      [
        "Ġpri",
        "maire"
      ],
      [
        "Ġaggre",
        "gation"
      ],
      [
        "Sta",
        "ck"
      ],
      [
        "Ġthirt",
        "y"
      ],
      [
        "L",
        "ayer"
      ],
      [
        "S",
        "t"
      ],
      [
        "in",
        "it"
      ],
      [
        "re",
        "d"
      ],
      [
        "alis",
        "Ã©e"
      ],
      [
        "ĠdÃ©",
        "velop"
      ],
      [
        "pe",
        "ment"
      ],
      [
        "int",
        "ure"
      ],
      [
        "Ġsto",
        "red"
      ],
      [
        "tra",
        "ge"
      ],
      [
        "Ġjo",
        "inture"
      ],
      [
        "ĠmatÃ©ri",
        "alisÃ©e"
      ],
      [
        "Ġpolymorphis",
        "m"
      ],
      [
        "ĠrÃ©se",
        "au"
      ],
      [
        "Ġfil",
        "trage"
      ],
      [
        "Ġprogram",
        "me"
      ],
      [
        "St",
        "ate"
      ],
      [
        "ĠdÃ©velop",
        "pement"
      ],
      [
        "b",
        "o"
      ],
      [
        "h",
        "bo"
      ],
      [
        "m",
        "ary"
      ],
      [
        "s",
        "Ã©ri"
      ],
      [
        "Ġd",
        "as"
      ],
      [
        "Ġt",
        "ensor"
      ],
      [
        "ĠrÃ©",
        "duction"
      ],
      [
        "ĠdÃ©",
        "sÃ©ri"
      ],
      [
        "Ġpri",
        "mary"
      ],
      [
        "Ġsynchron",
        "isation"
      ],
      [
        "Ġconcurr",
        "ence"
      ],
      [
        "hbo",
        "ard"
      ],
      [
        "Ġdas",
        "hboard"
      ],
      [
        "ĠdÃ©sÃ©ri",
        "alisation"
      ],
      [
        "7",
        "7"
      ],
      [
        "c",
        "Ã©"
      ],
      [
        "e",
        "ct"
      ],
      [
        "g",
        "at"
      ],
      [
        "g",
        "Ã¨"
      ],
      [
        "l",
        "en"
      ],
      [
        "t",
        "ran"
      ],
      [
        "u",
        "cle"
      ],
      [
        "Ġt",
        "est"
      ],
      [
        "ch",
        "eur"
      ],
      [
        "Ġpro",
        "cÃ©"
      ],
      [
        "Ġex",
        "ec"
      ],
      [
        "ĠÃ©",
        "tran"
      ],
      [
        "ĠdÃ©c",
        "len"
      ],
      [
        "Ġprofil",
        "ing"
      ],
      [
        "Ġbo",
        "ucle"
      ],
      [
        "Ġobj",
        "ect"
      ],
      [
        "ĠagrÃ©",
        "gat"
      ],
      [
        "gÃ¨",
        "re"
      ],
      [
        "ĠprocÃ©",
        "dure"
      ],
      [
        "Ġexec",
        "ution"
      ],
      [
        "ĠÃ©tran",
        "gÃ¨re"
      ],
      [
        "ĠdÃ©clen",
        "cheur"
      ],
      [
        "I",
        "n"
      ],
      [
        "t",
        "urn"
      ],
      [
        "Ġ",
        "x"
      ],
      [
        "Ġ",
        "ord"
      ],
      [
        "in",
        "ateur"
      ],
      [
        "Ġt",
        "ype"
      ],
      [
        "it",
        "age"
      ],
      [
        "Ġre",
        "turn"
      ],
      [
        "Ġh",
        "Ã©r"
      ],
      [
        "Ġb",
        "lock"
      ],
      [
        "Ġpre",
        "diction"
      ],
      [
        "In",
        "fo"
      ],
      [
        "Ġord",
        "inateur"
      ],
      [
        "ĠhÃ©r",
        "itage"
      ],
      [
        "c",
        "ature"
      ],
      [
        "p",
        "n"
      ],
      [
        "u",
        "e"
      ],
      [
        "Ġt",
        "ron"
      ],
      [
        "Ġv",
        "pn"
      ],
      [
        "Ġv",
        "ue"
      ],
      [
        "Ġco",
        "lon"
      ],
      [
        "ĠprÃ©",
        "diction"
      ],
      [
        "Ġgener",
        "ative"
      ],
      [
        "Ġsoft",
        "ware"
      ],
      [
        "Ġtron",
        "cature"
      ],
      [
        "Ġcolon",
        "ne"
      ],
      [
        "Ġ",
        "version"
      ],
      [
        "od",
        "eur"
      ],
      [
        "()",
        "."
      ],
      [
        "Ġsequ",
        "ence"
      ],
      [
        "ĠdÃ©c",
        "odeur"
      ],
      [
        "57",
        "7"
      ],
      [
        "N",
        "ode"
      ],
      [
        "V",
        "er"
      ],
      [
        "Ġm",
        "as"
      ],
      [
        "Ġn",
        "n"
      ],
      [
        "16",
        "8"
      ],
      [
        "Ġjo",
        "urn"
      ],
      [
        "Ver",
        "sion"
      ],
      [
        "Ġmas",
        "que"
      ],
      [
        "Ġjourn",
        "alisation"
      ],
      [
        "7",
        "18"
      ],
      [
        "T",
        "o"
      ],
      [
        "i",
        "ll"
      ],
      [
        "Ġs",
        "ample"
      ],
      [
        "Ġre",
        "inforcement"
      ],
      [
        "Ġcon",
        "fig"
      ],
      [
        "ve",
        "ill"
      ],
      [
        "Ġdes",
        "erialization"
      ],
      [
        "Ġsur",
        "veill"
      ],
      [
        "Ġcontex",
        "te"
      ],
      [
        "To",
        "ken"
      ],
      [
        "Ġsurveill",
        "ance"
      ],
      [
        "4",
        "14"
      ],
      [
        "7",
        "8"
      ],
      [
        "h",
        "idden"
      ],
      [
        "ĠrÃ©",
        "current"
      ],
      [
        "gg",
        "er"
      ],
      [
        "Ġtri",
        "gger"
      ],
      [
        "5",
        "3"
      ],
      [
        "7",
        "0"
      ],
      [
        "Ġlo",
        "op"
      ],
      [
        "15",
        "9"
      ],
      [
        "Ġstatis",
        "tique"
      ],
      [
        "1",
        "1"
      ],
      [
        "enc",
        "y"
      ],
      [
        "Ġst",
        "atus"
      ],
      [
        "Ġdiscrimin",
        "ant"
      ],
      [
        "Ġconcurr",
        "ency"
      ],
      [
        "n",
        "al"
      ],
      [
        "ra",
        "tif"
      ],
      [
        "Ġe",
        "dge"
      ],
      [
        "Ġ1",
        "92"
      ],
      [
        "Ġ12",
        "7"
      ],
      [
        "ĠgÃ©nÃ©",
        "ratif"
      ],
      [
        "Ġdimension",
        "nal"
      ],
      [
        "Ġdimensionnal",
        "itÃ©"
      ],
      [
        "B",
        "eta"
      ],
      [
        "W",
        "ed"
      ],
      [
        "b",
        "r"
      ],
      [
        "e",
        "di"
      ],
      [
        "e",
        "br"
      ],
      [
        "f",
        "r"
      ],
      [
        "i",
        "o"
      ],
      [
        "l",
        "pha"
      ],
      [
        "n",
        "esday"
      ],
      [
[...]
